{
  "version": "1.0",
  "truncation": null,
  "padding": null,
  "added_tokens": [
    {
      "id": 0,
      "content": "<|endoftext|>",
      "single_word": false,
      "lstrip": false,
      "rstrip": false,
      "normalized": false,
      "special": true
    }
  ],
  "normalizer": null,
  "pre_tokenizer": {
    "type": "ByteLevel",
    "add_prefix_space": false,
    "trim_offsets": true,
    "use_regex": true
  },
  "post_processor": null,
  "decoder": {
    "type": "ByteLevel",
    "add_prefix_space": true,
    "trim_offsets": true,
    "use_regex": true
  },
  "model": {
    "type": "BPE",
    "dropout": null,
    "unk_token": null,
    "continuing_subword_prefix": null,
    "end_of_word_suffix": null,
    "fuse_unk": false,
    "byte_fallback": false,
    "ignore_merges": false,
    "vocab": {
      "<|endoftext|>": 0,
      "!": 1,
      "\"": 2,
      "#": 3,
      "$": 4,
      "%": 5,
      "&": 6,
      "'": 7,
      "(": 8,
      ")": 9,
      "*": 10,
      "+": 11,
      ",": 12,
      "-": 13,
      ".": 14,
      "/": 15,
      "0": 16,
      "1": 17,
      "2": 18,
      "3": 19,
      "4": 20,
      "5": 21,
      "6": 22,
      "7": 23,
      "8": 24,
      "9": 25,
      ":": 26,
      ";": 27,
      "<": 28,
      "=": 29,
      ">": 30,
      "?": 31,
      "@": 32,
      "A": 33,
      "B": 34,
      "C": 35,
      "D": 36,
      "E": 37,
      "F": 38,
      "G": 39,
      "H": 40,
      "I": 41,
      "J": 42,
      "K": 43,
      "L": 44,
      "M": 45,
      "N": 46,
      "O": 47,
      "P": 48,
      "Q": 49,
      "R": 50,
      "S": 51,
      "T": 52,
      "U": 53,
      "V": 54,
      "W": 55,
      "X": 56,
      "Y": 57,
      "Z": 58,
      "[": 59,
      "\\": 60,
      "]": 61,
      "^": 62,
      "_": 63,
      "`": 64,
      "a": 65,
      "b": 66,
      "c": 67,
      "d": 68,
      "e": 69,
      "f": 70,
      "g": 71,
      "h": 72,
      "i": 73,
      "j": 74,
      "k": 75,
      "l": 76,
      "m": 77,
      "n": 78,
      "o": 79,
      "p": 80,
      "q": 81,
      "r": 82,
      "s": 83,
      "t": 84,
      "u": 85,
      "v": 86,
      "w": 87,
      "x": 88,
      "y": 89,
      "z": 90,
      "{": 91,
      "|": 92,
      "}": 93,
      "~": 94,
      "¡": 95,
      "¢": 96,
      "£": 97,
      "¤": 98,
      "¥": 99,
      "¦": 100,
      "§": 101,
      "¨": 102,
      "©": 103,
      "ª": 104,
      "«": 105,
      "¬": 106,
      "®": 107,
      "¯": 108,
      "°": 109,
      "±": 110,
      "²": 111,
      "³": 112,
      "´": 113,
      "µ": 114,
      "¶": 115,
      "·": 116,
      "¸": 117,
      "¹": 118,
      "º": 119,
      "»": 120,
      "¼": 121,
      "½": 122,
      "¾": 123,
      "¿": 124,
      "À": 125,
      "Á": 126,
      "Â": 127,
      "Ã": 128,
      "Ä": 129,
      "Å": 130,
      "Æ": 131,
      "Ç": 132,
      "È": 133,
      "É": 134,
      "Ê": 135,
      "Ë": 136,
      "Ì": 137,
      "Í": 138,
      "Î": 139,
      "Ï": 140,
      "Ð": 141,
      "Ñ": 142,
      "Ò": 143,
      "Ó": 144,
      "Ô": 145,
      "Õ": 146,
      "Ö": 147,
      "×": 148,
      "Ø": 149,
      "Ù": 150,
      "Ú": 151,
      "Û": 152,
      "Ü": 153,
      "Ý": 154,
      "Þ": 155,
      "ß": 156,
      "à": 157,
      "á": 158,
      "â": 159,
      "ã": 160,
      "ä": 161,
      "å": 162,
      "æ": 163,
      "ç": 164,
      "è": 165,
      "é": 166,
      "ê": 167,
      "ë": 168,
      "ì": 169,
      "í": 170,
      "î": 171,
      "ï": 172,
      "ð": 173,
      "ñ": 174,
      "ò": 175,
      "ó": 176,
      "ô": 177,
      "õ": 178,
      "ö": 179,
      "÷": 180,
      "ø": 181,
      "ù": 182,
      "ú": 183,
      "û": 184,
      "ü": 185,
      "ý": 186,
      "þ": 187,
      "ÿ": 188,
      "Ā": 189,
      "ā": 190,
      "Ă": 191,
      "ă": 192,
      "Ą": 193,
      "ą": 194,
      "Ć": 195,
      "ć": 196,
      "Ĉ": 197,
      "ĉ": 198,
      "Ċ": 199,
      "ċ": 200,
      "Č": 201,
      "č": 202,
      "Ď": 203,
      "ď": 204,
      "Đ": 205,
      "đ": 206,
      "Ē": 207,
      "ē": 208,
      "Ĕ": 209,
      "ĕ": 210,
      "Ė": 211,
      "ė": 212,
      "Ę": 213,
      "ę": 214,
      "Ě": 215,
      "ě": 216,
      "Ĝ": 217,
      "ĝ": 218,
      "Ğ": 219,
      "ğ": 220,
      "Ġ": 221,
      "ġ": 222,
      "Ģ": 223,
      "ģ": 224,
      "Ĥ": 225,
      "ĥ": 226,
      "Ħ": 227,
      "ħ": 228,
      "Ĩ": 229,
      "ĩ": 230,
      "Ī": 231,
      "ī": 232,
      "Ĭ": 233,
      "ĭ": 234,
      "Į": 235,
      "į": 236,
      "İ": 237,
      "ı": 238,
      "Ĳ": 239,
      "ĳ": 240,
      "Ĵ": 241,
      "ĵ": 242,
      "Ķ": 243,
      "ķ": 244,
      "ĸ": 245,
      "Ĺ": 246,
      "ĺ": 247,
      "Ļ": 248,
      "ļ": 249,
      "Ľ": 250,
      "ľ": 251,
      "Ŀ": 252,
      "ŀ": 253,
      "Ł": 254,
      "ł": 255,
      "Ń": 256,
      "Ġt": 257,
      "Ġa": 258,
      "in": 259,
      "he": 260,
      "re": 261,
      "on": 262,
      "Ġthe": 263,
      "er": 264,
      "Ġs": 265,
      "Ġw": 266,
      "at": 267,
      "Ġo": 268,
      "nd": 269,
      "Ġc": 270,
      "it": 271,
      "or": 272,
      "es": 273,
      "is": 274,
      "en": 275,
      "ou": 276,
      "Ġf": 277,
      "Ġb": 278,
      "ing": 279,
      "Ġp": 280,
      "ed": 281,
      "an": 282,
      "al": 283,
      "Ġto": 284,
      "Ġm": 285,
      "ar": 286,
      "Ġand": 287,
      "Ġof": 288,
      "Ġin": 289,
      "Ġd": 290,
      "ic": 291,
      "Ġh": 292,
      "le": 293,
      "as": 294,
      "om": 295,
      "ion": 296,
      "Ġth": 297,
      "ll": 298,
      "âĢ": 299,
      "ent": 300,
      "Ġl": 301,
      "ve": 302,
      "Ġe": 303,
      "st": 304,
      "Ġre": 305,
      "Ġn": 306,
      "ro": 307,
      "Ġy": 308,
      "Ġg": 309,
      "ly": 310,
      "ĠI": 311,
      "ct": 312,
      "Ġbe": 313,
      "ĠT": 314,
      "ut": 315,
      "ot": 316,
      "et": 317,
      "ĠS": 318,
      "Ġis": 319,
      "id": 320,
      "Ġyou": 321,
      "Ġon": 322,
      "ay": 323,
      "Ġfor": 324,
      "ow": 325,
      "ĠA": 326,
      "ĠC": 327,
      "ur": 328,
      "se": 329,
      "im": 330,
      "ad": 331,
      "ce": 332,
      "ig": 333,
      "am": 334,
      "ver": 335,
      "Ġthat": 336,
      "Ġu": 337,
      "ch": 338,
      "il": 339,
      "ith": 340,
      "ation": 341,
      "Ġst": 342,
      "ol": 343,
      "ir": 344,
      "Ġwith": 345,
      "âĢĻ": 346,
      "ĠM": 347,
      "Ġit": 348,
      "Ġhe": 349,
      "Ġwe": 350,
      "ra": 351,
      "ĠB": 352,
      "Ġwh": 353,
      "Ġan": 354,
      "Ġas": 355,
      "ĠP": 356,
      "ers": 357,
      "ill": 358,
      "if": 359,
      "ke": 360,
      "Ġpro": 361,
      "ter": 362,
      "Ġha": 363,
      "Ġare": 364,
      "ge": 365,
      "ĠW": 366,
      "Ġcon": 367,
      "ld": 368,
      "oo": 369,
      "her": 370,
      "ul": 371,
      "Ġor": 372,
      "ate": 373,
      "ĠH": 374,
      "ess": 375,
      "ĠD": 376,
      "pp": 377,
      "ck": 378,
      "Ġat": 379,
      "Ġse": 380,
      "Ġcom": 381,
      "ore": 382,
      "ri": 383,
      "ment": 384,
      "Ġde": 385,
      "ĠThe": 386,
      "Ġ1": 387,
      "est": 388,
      "us": 389,
      "ĠF": 390,
      "ĠR": 391,
      "igh": 392,
      "th": 393,
      "ab": 394,
      "Ġwas": 395,
      "Ġ(": 396,
      "ist": 397,
      "Ġ2": 398,
      "rom": 399,
      "Ġne": 400,
      "pe": 401,
      "Ġex": 402,
      "un": 403,
      "ĠL": 404,
      "ant": 405,
      "res": 406,
      "qu": 407,
      "ity": 408,
      "Ġsu": 409,
      "ive": 410,
      "Ġv": 411,
      "op": 412,
      "Ġr": 413,
      "em": 414,
      "Ġhave": 415,
      "ort": 416,
      "ĠG": 417,
      "ĠâĢ": 418,
      "ĠN": 419,
      "ain": 420,
      "art": 421,
      "ĠE": 422,
      "Ġthis": 423,
      "Ġnot": 424,
      "nt": 425,
      "ust": 426,
      "Ġfrom": 427,
      "Ġyour": 428,
      "um": 429,
      "Ġsh": 430,
      "os": 431,
      "Ġby": 432,
      "ies": 433,
      "and": 434,
      "el": 435,
      "ight": 436,
      "Ġal": 437,
      "Ġch": 438,
      "Ġcan": 439,
      "all": 440,
      "ome": 441,
      "ie": 442,
      "Ġle": 443,
      "ard": 444,
      "out": 445,
      "ĠO": 446,
      "ould": 447,
      "Ġwill": 448,
      "red": 449,
      "ud": 450,
      "our": 451,
      "Ġab": 452,
      "Ġdo": 453,
      "iv": 454,
      "gh": 455,
      "Ġwor": 456,
      "ally": 457,
      "ost": 458,
      "te": 459,
      "00": 460,
      "'s": 461,
      "od": 462,
      "Ġpl": 463,
      "Ġall": 464,
      "rou": 465,
      "ĠJ": 466,
      "ast": 467,
      "ci": 468,
      "ear": 469,
      "Ġj": 470,
      "ak": 471,
      "ide": 472,
      "The": 473,
      "Ġk": 474,
      "ine": 475,
      "fe": 476,
      "ag": 477,
      "ure": 478,
      "Ġhas": 479,
      "Ġso": 480,
      "pt": 481,
      "per": 482,
      "Ġme": 483,
      "Ġbut": 484,
      "Ġwhe": 485,
      "ack": 486,
      "âĢĿ": 487,
      "ice": 488,
      "age": 489,
      "ction": 490,
      "Ġus": 491,
      "ich": 492,
      "ther": 493,
      "ac": 494,
      "Ġad": 495,
      "Ġout": 496,
      "pl": 497,
      "ĠU": 498,
      "Ġup": 499,
      "ake": 500,
      "Ġthey": 501,
      "ind": 502,
      "ook": 503,
      "one": 504,
      "are": 505,
      "og": 506,
      "so": 507,
      "Ġtheir": 508,
      "ry": 509,
      "Ġmore": 510,
      "ong": 511,
      "Ġcomp": 512,
      "very": 513,
      "Ġen": 514,
      "ime": 515,
      "ated": 516,
      "Ġmy": 517,
      "Ġhis": 518,
      "able": 519,
      "ood": 520,
      "ous": 521,
      "Ġte": 522,
      "cc": 523,
      "ame": 524,
      "Ġone": 525,
      "Ġcl": 526,
      "ans": 527,
      "iz": 528,
      "ite": 529,
      "ike": 530,
      "ip": 531,
      "Ġsa": 532,
      "Ġwho": 533,
      "orm": 534,
      "Ġabout": 535,
      "Ġim": 536,
      "ĠTh": 537,
      "ĠIn": 538,
      "ĠâĢľ": 539,
      "ib": 540,
      "Ġcont": 541,
      "Ġour": 542,
      "ru": 543,
      "ions": 544,
      "Ġgo": 545,
      "Ġman": 546,
      "Ġwhich": 547,
      "ne": 548,
      "cl": 549,
      "ance": 550,
      "Ġfe": 551,
      "du": 552,
      "act": 553,
      "ĠK": 554,
      "to": 555,
      "ia": 556,
      "Ġ20": 557,
      "ase": 558,
      "ber": 559,
      "Ġres": 560,
      "ire": 561,
      "ail": 562,
      "reat": 563,
      "Ġwork": 564,
      "ree": 565,
      "ign": 566,
      "ff": 567,
      "ĠY": 568,
      "oc": 569,
      "..": 570,
      "ays": 571,
      "Ġapp": 572,
      "ach": 573,
      "ace": 574,
      "ations": 575,
      "ary": 576,
      "Ġper": 577,
      "ap": 578,
      "Ġother": 579,
      "ult": 580,
      "ven": 581,
      "ick": 582,
      "au": 583,
      "ass": 584,
      "ep": 585,
      "ub": 586,
      "ical": 587,
      "ĠSt": 588,
      "Ġsome": 589,
      "Ġtime": 590,
      "Ġqu": 591,
      "Ġyear": 592,
      "Ġoff": 593,
      "Ġlike": 594,
      "ue": 595,
      "ile": 596,
      "Ġalso": 597,
      "Ġany": 598,
      "Ġhad": 599,
      "Ġdis": 600,
      "ount": 601,
      "Ġ\"": 602,
      "ence": 603,
      "now": 604,
      "ark": 605,
      "ove": 606,
      "Ġget": 607,
      "Ġun": 608,
      "ress": 609,
      "ord": 610,
      "form": 611,
      "ĠIt": 612,
      "Ġthem": 613,
      "Ġwere": 614,
      "Ġbeen": 615,
      "ĠV": 616,
      "ings": 617,
      "Ġnew": 618,
      "Ġsp": 619,
      "Ġpart": 620,
      "erv": 621,
      "Ġag": 622,
      "Ġ3": 623,
      "ĠCh": 624,
      "Ġthere": 625,
      "ond": 626,
      "ose": 627,
      "Ġher": 628,
      "Ġpe": 629,
      "Ġover": 630,
      "Ġwould": 631,
      "vel": 632,
      "Ġwhen": 633,
      "av": 634,
      "ough": 635,
      "ition": 636,
      "Ġ-": 637,
      "Ġwhat": 638,
      "Ġar": 639,
      "ents": 640,
      "Ġif": 641,
      "ial": 642,
      "ink": 643,
      "ors": 644,
      "Ġthan": 645,
      "Ġtr": 646,
      "ens": 647,
      "Ġjust": 648,
      "ound": 649,
      "Ġ201": 650,
      "irst": 651,
      "Ġpre": 652,
      "Ġspe": 653,
      "Ġro": 654,
      "port": 655,
      "int": 656,
      "ish": 657,
      "Ġbec": 658,
      "ob": 659,
      "Ġrec": 660,
      "mer": 661,
      "Ġknow": 662,
      "ild": 663,
      "wn": 664,
      "Ġinto": 665,
      "ople": 666,
      "ren": 667,
      "ory": 668,
      "ĠWe": 669,
      "nder": 670,
      "fter": 671,
      "Ġsaid": 672,
      "own": 673,
      "ov": 674,
      "Ġneed": 675,
      "ĠHe": 676,
      "Ġhow": 677,
      "oy": 678,
      "rough": 679,
      "Ġam": 680,
      "ater": 681,
      "ade": 682,
      "Ġsc": 683,
      "itt": 684,
      "Ġits": 685,
      "Ġacc": 686,
      "ang": 687,
      "Ġtw": 688,
      "Ġco": 689,
      "vers": 690,
      "old": 691,
      "Ġpeople": 692,
      "lic": 693,
      "ning": 694,
      "Ġdes": 695,
      "Ġshe": 696,
      "Ġbl": 697,
      "Ġfirst": 698,
      "Ġmay": 699,
      "we": 700,
      "ons": 701,
      "clud": 702,
      "Ġno": 703,
      "ual": 704,
      "ĠâĢĵ": 705,
      "ces": 706,
      "cial": 707,
      "hed": 708,
      "ian": 709,
      "Ġcomm": 710,
      "ause": 711,
      "ates": 712,
      "'t": 713,
      "amp": 714,
      "Ġonly": 715,
      "Ġ19": 716,
      "ft": 717,
      "ull": 718,
      "lp": 719,
      "Ġ4": 720,
      "Ġmake": 721,
      "Ġbet": 722,
      "rent": 723,
      "Ġmost": 724,
      "Ġtra": 725,
      "ments": 726,
      "day": 727,
      "Ġback": 728,
      "end": 729,
      "Ġadd": 730,
      "ric": 731,
      "tern": 732,
      "Ġpo": 733,
      "Ġind": 734,
      "Ġlook": 735,
      "Ġem": 736,
      "Ġprov": 737,
      "ĠThis": 738,
      "Ġevery": 739,
      "ily": 740,
      "Ġhelp": 741,
      "ĠRe": 742,
      "round": 743,
      "Ġfl": 744,
      "Ġthrough": 745,
      "hing": 746,
      "Ġ5": 747,
      "ating": 748,
      "Ġwant": 749,
      "ious": 750,
      ").": 751,
      "Ġinclud": 752,
      "ise": 753,
      "Ġtwo": 754,
      "iew": 755,
      "Ġsee": 756,
      "Ġcons": 757,
      "les": 758,
      "Ġact": 759,
      "gr": 760,
      "Ġthese": 761,
      "Ġuse": 762,
      "Ġwell": 763,
      "Ġprodu": 764,
      "Ġunder": 765,
      "Ġafter": 766,
      "sel": 767,
      "ks": 768,
      "Ġbu": 769,
      "ities": 770,
      "Ġcould": 771,
      "ph": 772,
      "fect": 773,
      "iss": 774,
      "ect": 775,
      "xt": 776,
      "Ġph": 777,
      "ced": 778,
      "ew": 779,
      "oll": 780,
      "ife": 781,
      "fore": 782,
      "Ġserv": 783,
      "ert": 784,
      "urn": 785,
      "Th": 786,
      "pport": 787,
      "Ġdif": 788,
      "ific": 789,
      "aw": 790,
      "hen": 791,
      "row": 792,
      "Ġplay": 793,
      "Ġvery": 794,
      "Ġrel": 795,
      "Ġhim": 796,
      "uch": 797,
      "Ġsy": 798,
      "Ġyears": 799,
      "Ġeven": 800,
      "ting": 801,
      "rit": 802,
      "Ġway": 803,
      "Ġreg": 804,
      "Ġgood": 805,
      "Ġinc": 806,
      "erson": 807,
      "ont": 808,
      "Ġinv": 809,
      "lect": 810,
      "Ġmany": 811,
      "Ġra": 812,
      "ational": 813,
      "Ġpr": 814,
      "Ġrem": 815,
      "ange": 816,
      "Ġ200": 817,
      "Ġnow": 818,
      "iness": 819,
      "ject": 820,
      "pect": 821,
      "ful": 822,
      "Ġimp": 823,
      "oss": 824,
      "Ġthen": 825,
      "Ġev": 826,
      "cess": 827,
      "Ġstud": 828,
      "als": 829,
      "Ġcol": 830,
      "Ġke": 831,
      "aking": 832,
      "Ġsm": 833,
      "Ġwhere": 834,
      "ock": 835,
      "Ġdid": 836,
      "Ġright": 837,
      "olog": 838,
      "com": 839,
      "Ġshould": 840,
      "oth": 841,
      "||": 842,
      "ible": 843,
      "ĠYou": 844,
      "ased": 845,
      "ility": 846,
      "ool": 847,
      "Ġbecause": 848,
      "bs": 849,
      "ĠUn": 850,
      "Ġsec": 851,
      "ident": 852,
      "any": 853,
      "ts": 854,
      "Ġstart": 855,
      "ward": 856,
      "Ġdon": 857,
      "ular": 858,
      ".âĢĿ": 859,
      "Ġown": 860,
      "ower": 861,
      "),": 862,
      "get": 863,
      "ĠWh": 864,
      "Ġexper": 865,
      "ied": 866,
      "ath": 867,
      "ble": 868,
      "ures": 869,
      "uring": 870,
      "Ġbus": 871,
      "Ġgreat": 872,
      "Ġac": 873,
      "ell": 874,
      "erm": 875,
      "Ġgu": 876,
      "hip": 877,
      "ys": 878,
      "Ġtoo": 879,
      "Ġdown": 880,
      "Ġthink": 881,
      "ĠAs": 882,
      "Ġatt": 883,
      "Ġmuch": 884,
      "Ġfin": 885,
      "ices": 886,
      "ty": 887,
      "hes": 888,
      "Ġsuch": 889,
      "other": 890,
      "ĠSe": 891,
      "Ġent": 892,
      "ĠAnd": 893,
      "stem": 894,
      "formation": 895,
      "up": 896,
      "ative": 897,
      "Ġ$": 898,
      "Ġagain": 899,
      "ited": 900,
      "Ġlong": 901,
      "Ġday": 902,
      "ĠCom": 903,
      "arch": 904,
      "its": 905,
      "gan": 906,
      "Ġ6": 907,
      "Ġdec": 908,
      "ict": 909,
      "In": 910,
      "Ġinst": 911,
      "ics": 912,
      "ork": 913,
      "omet": 914,
      "ract": 915,
      "Ġtake": 916,
      "air": 917,
      "Ġhigh": 918,
      "velop": 919,
      "Ġset": 920,
      "Ġfind": 921,
      "alth": 922,
      "Ġhere": 923,
      "Ġthose": 924,
      "ener": 925,
      "Ġpres": 926,
      "rib": 927,
      "Ġmon": 928,
      "Ġdoes": 929,
      "Ġbefore": 930,
      "Ġcall": 931,
      "Ġwee": 932,
      "Ġinte": 933,
      "Ġbel": 934,
      "Ġbeing": 935,
      "Ġend": 936,
      "Ġread": 937,
      "Ġshow": 938,
      "Ġmade": 939,
      "Ġins": 940,
      "und": 941,
      "Ġdiffe": 942,
      "Ġ&": 943,
      "ng": 944,
      "ason": 945,
      "ĠPro": 946,
      "ner": 947,
      "Ġbest": 948,
      "âĢľ": 949,
      "ix": 950,
      "Ġperson": 951,
      "Ġworld": 952,
      "cy": 953,
      "ues": 954,
      "ually": 955,
      "Ġcar": 956,
      "ĠDe": 957,
      "alk": 958,
      "ollow": 959,
      "Ġrequ": 960,
      "rest": 961,
      "Ġmin": 962,
      "Ġass": 963,
      "Ġlast": 964,
      "Ġloc": 965,
      "way": 966,
      "ax": 967,
      "Ġsur": 968,
      "Ġfam": 969,
      "io": 970,
      "Ġhome": 971,
      "Ġsim": 972,
      "Ġbusiness": 973,
      "ĠIf": 974,
      "Ġbr": 975,
      "ĠAn": 976,
      "chool": 977,
      "ĠNew": 978,
      "Ġ10": 979,
      "Ġlife": 980,
      "Ġinformation": 981,
      "Ġhand": 982,
      "gram": 983,
      "self": 984,
      "...": 985,
      "ank": 986,
      "Ġmed": 987,
      "20": 988,
      "ffect": 989,
      "ving": 990,
      "Ġche": 991,
      "Ġpol": 992,
      "Ġav": 993,
      "line": 994,
      "Ġ7": 995,
      "ave": 996,
      "Ġsystem": 997,
      "ublic": 998,
      "pen": 999,
      "Ġtrans": 1000,
      "We": 1001,
      "Ġmark": 1002,
      "Ġdevelop": 1003,
      "Ġear": 1004,
      "ince": 1005,
      "Ġwhile": 1006,
      "ins": 1007,
      "led": 1008,
      "ĠBut": 1009,
      "atch": 1010,
      "Ġcount": 1011,
      "Ġmem": 1012,
      "Ġinter": 1013,
      "Ġlead": 1014,
      "li": 1015,
      "az": 1016,
      "Ġused": 1017,
      "ness": 1018,
      "ouse": 1019,
      "Ġreally": 1020,
      "pr": 1021,
      "Ġsub": 1022,
      "chn": 1023,
      "ros": 1024,
      "ives": 1025,
      "Ġthough": 1026,
      "land": 1027,
      "Ġeach": 1028,
      "ple": 1029,
      "Ġcre": 1030,
      "ather": 1031,
      "Ġnum": 1032,
      "cept": 1033,
      ".\"": 1034,
      "Ġgoing": 1035,
      "Ġmod": 1036,
      "Ġart": 1037,
      "arm": 1038,
      "Ġdet": 1039,
      "Ġ8": 1040,
      "view": 1041,
      "Ġaround": 1042,
      ",âĢĿ": 1043,
      "Ġdisc": 1044,
      "imes": 1045,
      "akes": 1046,
      "Ġsomet": 1047,
      "ines": 1048,
      "Ġret": 1049,
      "Ġform": 1050,
      "Ġfollow": 1051,
      "Ġsupport": 1052,
      "ale": 1053,
      "read": 1054,
      "Ġdesign": 1055,
      "ween": 1056,
      "ience": 1057,
      "Ġstill": 1058,
      "Ġvis": 1059,
      "Ġcour": 1060,
      "Ġproduct": 1061,
      "Ġser": 1062,
      "oun": 1063,
      "ĠAl": 1064,
      "meric": 1065,
      "ever": 1066,
      "gg": 1067,
      "ution": 1068,
      "ĠSh": 1069,
      "ctions": 1070,
      "ene": 1071,
      "ality": 1072,
      "Ġsay": 1073,
      "riend": 1074,
      "Ġsame": 1075,
      "irect": 1076,
      "ash": 1077,
      "roup": 1078,
      "ved": 1079,
      "ize": 1080,
      "Ġadv": 1081,
      "Ġcare": 1082,
      "Ġdifferent": 1083,
      "Ġed": 1084,
      "Ġcur": 1085,
      "Ġcomple": 1086,
      "Ġsl": 1087,
      "ĠAr": 1088,
      "ata": 1089,
      "ets": 1090,
      "ages": 1091,
      "Ġaut": 1092,
      "ĠSo": 1093,
      "lease": 1094,
      "Ġbook": 1095,
      "Ġchar": 1096,
      "Ġprovid": 1097,
      "Ġbetween": 1098,
      "ivers": 1099,
      "der": 1100,
      "Ġteam": 1101,
      "ah": 1102,
      "ĠFor": 1103,
      "Ġsign": 1104,
      "Ġgr": 1105,
      "Ġpoint": 1106,
      "Ġsk": 1107,
      "Ġcommun": 1108,
      "Ġstr": 1109,
      "Ġfound": 1110,
      "Ġrun": 1111,
      "Ġchild": 1112,
      "the": 1113,
      "This": 1114,
      "man": 1115,
      "ittle": 1116,
      "Ġfeel": 1117,
      "ars": 1118,
      "Ġplace": 1119,
      "Ġboth": 1120,
      "Ġthree": 1121,
      "ĠCl": 1122,
      "ĠThey": 1123,
      "Wh": 1124,
      "ute": 1125,
      "It": 1126,
      "Ġ9": 1127,
      "ĠBe": 1128,
      "Ġcle": 1129,
      "Ġprogram": 1130,
      "Ġexp": 1131,
      "ustom": 1132,
      "Ġgl": 1133,
      "Ġfew": 1134,
      "ex": 1135,
      "ways": 1136,
      "Ġeas": 1137,
      "Ġbo": 1138,
      "Ġlot": 1139,
      "Ġstate": 1140,
      "Ġrep": 1141,
      "Ġpur": 1142,
      "ists": 1143,
      "Ġpost": 1144,
      "000": 1145,
      "ody": 1146,
      "ĠAmeric": 1147,
      "ional": 1148,
      "ten": 1149,
      "less": 1150,
      "Ġhapp": 1151,
      "ized": 1152,
      "be": 1153,
      "Ġmet": 1154,
      "Ġthings": 1155,
      "Ġfree": 1156,
      "ired": 1157,
      "ton": 1158,
      "ient": 1159,
      "Ġlove": 1160,
      "ĠLe": 1161,
      "Ġfun": 1162,
      "ames": 1163,
      "orn": 1164,
      "ĠAd": 1165,
      "Ġprocess": 1166,
      "Ġprof": 1167,
      "Ġimport": 1168,
      "ety": 1169,
      "Ġmonth": 1170,
      "ology": 1171,
      "ves": 1172,
      "Ġfull": 1173,
      "Ġlar": 1174,
      "uc": 1175,
      "vern": 1176,
      "Ġgener": 1177,
      "thing": 1178,
      "Ġlittle": 1179,
      "Ġext": 1180,
      "Ġtop": 1181,
      "oh": 1182,
      "Ġfact": 1183,
      "Ġreal": 1184,
      "ants": 1185,
      "Ġlist": 1186,
      "Ġhealth": 1187,
      "Ġreport": 1188,
      "ital": 1189,
      "Ġtechn": 1190,
      "ug": 1191,
      "cent": 1192,
      "Ġduring": 1193,
      "ature": 1194,
      "Ġcome": 1195,
      "ailable": 1196,
      "cer": 1197,
      "con": 1198,
      "Ġfil": 1199,
      "ield": 1200,
      "Ġdef": 1201,
      "bers": 1202,
      "ross": 1203,
      "Ġref": 1204,
      "Ġopen": 1205,
      "ished": 1206,
      "Ġkeep": 1207,
      "Ġplan": 1208,
      "Ġob": 1209,
      "Ġposs": 1210,
      "arn": 1211,
      "Ġappro": 1212,
      "Ġsomething": 1213,
      ",\"": 1214,
      "Ġpat": 1215,
      "Ġint": 1216,
      "ering": 1217,
      "ically": 1218,
      "Ġfr": 1219,
      "Ġcontin": 1220,
      "Ġpartic": 1221,
      "Ġcent": 1222,
      "Ġinterest": 1223,
      "ism": 1224,
      "Ġusing": 1225,
      "iving": 1226,
      "ention": 1227,
      "Ġiss": 1228,
      "Ġgot": 1229,
      "rand": 1230,
      "att": 1231,
      "oot": 1232,
      "oad": 1233,
      "Ġrest": 1234,
      "Ġresp": 1235,
      "ared": 1236,
      "ined": 1237,
      "Ġcor": 1238,
      "Ġmust": 1239,
      "Ġpri": 1240,
      "Ġbig": 1241,
      "ĠThere": 1242,
      "Ġanother": 1243,
      "Ġwithout": 1244,
      "ining": 1245,
      "Ġbetter": 1246,
      "Ġmight": 1247,
      "Ġnext": 1248,
      "Ġconf": 1249,
      "Ġty": 1250,
      "Ġfriend": 1251,
      "Ġput": 1252,
      "Ġresult": 1253,
      "Ġgame": 1254,
      "Ġallow": 1255,
      "Ġcustom": 1256,
      "Ġhead": 1257,
      "ĠBl": 1258,
      "tt": 1259,
      "10": 1260,
      "gy": 1261,
      "Ġcompany": 1262,
      "Ġvar": 1263,
      "Ġquest": 1264,
      "Ġschool": 1265,
      "Ġsmall": 1266,
      "Ġtry": 1267,
      "Ġgroup": 1268,
      "Ġincluding": 1269,
      "Ġdist": 1270,
      "atur": 1271,
      "Ġide": 1272,
      "Ġpass": 1273,
      "Ġalways": 1274,
      "ĠShe": 1275,
      "Ġstand": 1276,
      "Ġtri": 1277,
      "Ġavailable": 1278,
      "Ġmus": 1279,
      "Ġorgan": 1280,
      "ger": 1281,
      "Ġweek": 1282,
      "iqu": 1283,
      "Ġsol": 1284,
      "blem": 1285,
      "Ġsince": 1286,
      "Ġdata": 1287,
      "Ġsecond": 1288,
      "Ġmain": 1289,
      "Ġeffect": 1290,
      "uss": 1291,
      "ik": 1292,
      "Ġval": 1293,
      "Ġwr": 1294,
      "ĠHow": 1295,
      "Ġnever": 1296,
      "Ġdri": 1297,
      "âĢ¦": 1298,
      "ware": 1299,
      "Ġwater": 1300,
      "ploy": 1301,
      "Ġfamily": 1302,
      "stand": 1303,
      "reen": 1304,
      "Ġopt": 1305,
      "Ġmarket": 1306,
      "Ġhard": 1307,
      "Ġmov": 1308,
      "Ġ'": 1309,
      "aj": 1310,
      "Ġi": 1311,
      "Ġwom": 1312,
      "Ġbuild": 1313,
      "Ġask": 1314,
      "Ġnumber": 1315,
      "Ġold": 1316,
      "Ġrece": 1317,
      "Ġincre": 1318,
      "Ġpay": 1319,
      "ertain": 1320,
      "ately": 1321,
      "ier": 1322,
      "ample": 1323,
      "ĠâĢĺ": 1324,
      "ĠOn": 1325,
      "ision": 1326,
      "ling": 1327,
      "Ġcr": 1328,
      "19": 1329,
      "Ġexpl": 1330,
      "ĠAll": 1331,
      "Ġpower": 1332,
      "ral": 1333,
      "rol": 1334,
      "Ġpublic": 1335,
      "Ġproblem": 1336,
      "ĠEx": 1337,
      "ĠFr": 1338,
      "rence": 1339,
      "ĠIs": 1340,
      "ĠâĢĶ": 1341,
      "Ġbro": 1342,
      "Ġdays": 1343,
      "Ġclass": 1344,
      "illion": 1345,
      "ĠPl": 1346,
      "Ġimportant": 1347,
      "Ġdirect": 1348,
      "rist": 1349,
      "Ġperform": 1350,
      "âĢĶ": 1351,
      "ĠInd": 1352,
      "Ġsure": 1353,
      "ted": 1354,
      "Ġexperience": 1355,
      "ense": 1356,
      "iversity": 1357,
      "Ġlevel": 1358,
      "Ġagainst": 1359,
      "els": 1360,
      "Ġel": 1361,
      "ER": 1362,
      "Ġinf": 1363,
      "ĠQ": 1364,
      "me": 1365,
      "Ġspec": 1366,
      "ok": 1367,
      "Ġlaw": 1368,
      "Ġhum": 1369,
      "oney": 1370,
      "If": 1371,
      "ird": 1372,
      "Ġve": 1373,
      "ccess": 1374,
      "Ġservice": 1375,
      "Ġproject": 1376,
      "Ġwin": 1377,
      "ior": 1378,
      "Ġseem": 1379,
      "Ġgive": 1380,
      "pend": 1381,
      "Ġca": 1382,
      "Ġless": 1383,
      "Ġbelie": 1384,
      "Ġable": 1385,
      "work": 1386,
      "ps": 1387,
      "Ġcost": 1388,
      "inal": 1389,
      "Ġbre": 1390,
      "Ġsays": 1391,
      "uck": 1392,
      "Ġlet": 1393,
      "Ġinvest": 1394,
      "Ġgrow": 1395,
      "ards": 1396,
      "Ġ18": 1397,
      "ered": 1398,
      "ote": 1399,
      "Ġtest": 1400,
      "ope": 1401,
      "Ġ12": 1402,
      "Ġlight": 1403,
      "Ġ0": 1404,
      "ases": 1405,
      "Ġpos": 1406,
      ".,": 1407,
      "raph": 1408,
      "Ġfour": 1409,
      "here": 1410,
      "Ġrese": 1411,
      "Ġunt": 1412,
      "Ġcurrent": 1413,
      "ably": 1414,
      "ĠCon": 1415,
      "ours": 1416,
      "ivid": 1417,
      "Ġonline": 1418,
      "Ġwithin": 1419,
      "Ġsit": 1420,
      "gin": 1421,
      "ients": 1422,
      "ĠZ": 1423,
      "ĠTe": 1424,
      "Ġprovide": 1425,
      "ats": 1426,
      "Ġleg": 1427,
      "ration": 1428,
      "Ġmeet": 1429,
      "Ġpop": 1430,
      "Ġgovern": 1431,
      "Ġturn": 1432,
      "Ġorder": 1433,
      "ĠPh": 1434,
      "pped": 1435,
      "Ġhist": 1436,
      "Ġdi": 1437,
      "ron": 1438,
      "cing": 1439,
      "of": 1440,
      "He": 1441,
      "ien": 1442,
      "ret": 1443,
      "ently": 1444,
      "ann": 1445,
      "Ġann": 1446,
      "outh": 1447,
      "ĠThat": 1448,
      "pos": 1449,
      "ruct": 1450,
      "Ġtoday": 1451,
      "50": 1452,
      "Ġaway": 1453,
      "ission": 1454,
      "Ġ.": 1455,
      "Ġbeh": 1456,
      "ator": 1457,
      "Ġoper": 1458,
      "pping": 1459,
      "Ġsupp": 1460,
      "aut": 1461,
      "Ġproper": 1462,
      "co": 1463,
      "ember": 1464,
      "ĠCol": 1465,
      "hor": 1466,
      "ĠUS": 1467,
      "ffic": 1468,
      "Ġfood": 1469,
      "Ġdem": 1470,
      "med": 1471,
      "ider": 1472,
      "Ġsing": 1473,
      "Ġprev": 1474,
      "ains": 1475,
      "ised": 1476,
      "ott": 1477,
      "ec": 1478,
      "ury": 1479,
      "Ġmaking": 1480,
      "Ġjob": 1481,
      "Ġest": 1482,
      "Ġview": 1483,
      "Ġworking": 1484,
      "Ġprote": 1485,
      "oint": 1486,
      "ording": 1487,
      "Ġaccess": 1488,
      "Ġeng": 1489,
      "Ġservices": 1490,
      "Ġpresent": 1491,
      "lish": 1492,
      "por": 1493,
      "You": 1494,
      "ium": 1495,
      "!!": 1496,
      "Ġprom": 1497,
      "ged": 1498,
      "Ġtru": 1499,
      "Ġcase": 1500,
      "ream": 1501,
      "IN": 1502,
      "As": 1503,
      "Ġarea": 1504,
      "Ġcourse": 1505,
      "ured": 1506,
      "aring": 1507,
      "ney": 1508,
      "Ġnight": 1509,
      "Ġspecial": 1510,
      "ĠSp": 1511,
      "atter": 1512,
      "iron": 1513,
      "Ġaddition": 1514,
      "Ġequ": 1515,
      "ead": 1516,
      "ids": 1517,
      "ories": 1518,
      "ified": 1519,
      "Ġchange": 1520,
      "tend": 1521,
      "Ġuntil": 1522,
      "ley": 1523,
      "ww": 1524,
      "Ġpast": 1525,
      "ĠComm": 1526,
      "Ġcap": 1527,
      "ump": 1528,
      "Ġchang": 1529,
      "Ġthing": 1530,
      "ina": 1531,
      "Ġword": 1532,
      "ĠOr": 1533,
      "Ġkind": 1534,
      "ĠSc": 1535,
      "Ġsal": 1536,
      "Ġlocal": 1537,
      "30": 1538,
      "sh": 1539,
      "ĠTr": 1540,
      "Ġconst": 1541,
      "Ġfac": 1542,
      "orth": 1543,
      "iting": 1544,
      "ify": 1545,
      "ĠTo": 1546,
      "min": 1547,
      "'re": 1548,
      "ĠRes": 1549,
      "Ġpract": 1550,
      "Ġchildren": 1551,
      "Ġwhy": 1552,
      "conom": 1553,
      "ĠCan": 1554,
      "omm": 1555,
      "soci": 1556,
      "Ġ[": 1557,
      "Ġdev": 1558,
      "Ġleft": 1559,
      "cu": 1560,
      "Ġstudents": 1561,
      "Ġintern": 1562,
      "Ġlooking": 1563,
      "by": 1564,
      "Ġlarge": 1565,
      "Ġphot": 1566,
      "ĠMan": 1567,
      "Ġname": 1568,
      "lection": 1569,
      "eng": 1570,
      "augh": 1571,
      "12": 1572,
      "joy": 1573,
      "Ġoften": 1574,
      "ĠCent": 1575,
      "ability": 1576,
      "irl": 1577,
      "ization": 1578,
      "Ġbas": 1579,
      "Ġwebs": 1580,
      "Ġ15": 1581,
      "Ġtalk": 1582,
      "Ġprofess": 1583,
      "Ġmove": 1584,
      "Ġmoney": 1585,
      "Ġunderstand": 1586,
      "arent": 1587,
      "ries": 1588,
      "itions": 1589,
      "ĠNo": 1590,
      "Ġdr": 1591,
      "gether": 1592,
      "Ġtogether": 1593,
      "Ġevent": 1594,
      "icle": 1595,
      "Ġseason": 1596,
      "Ġterm": 1597,
      "ĠMar": 1598,
      "Ġsite": 1599,
      "Ġactiv": 1600,
      "ĠChrist": 1601,
      "Ġnear": 1602,
      "Ġroom": 1603,
      "Ġemploy": 1604,
      "ising": 1605,
      "Ġdidn": 1606,
      "ajor": 1607,
      "Ġenough": 1608,
      "ohn": 1609,
      "Ġtimes": 1610,
      "bo": 1611,
      "Ġtell": 1612,
      "Ġsuccess": 1613,
      "Ġexpect": 1614,
      "Ġalong": 1615,
      "Ġhaving": 1616,
      "Ġvide": 1617,
      "ode": 1618,
      "ination": 1619,
      "ived": 1620,
      "Ġtreat": 1621,
      "ready": 1622,
      "let": 1623,
      "Ġapplic": 1624,
      "utes": 1625,
      "part": 1626,
      "Ġcomplete": 1627,
      "urs": 1628,
      "Ġ199": 1629,
      "Ġcommunity": 1630,
      "Ġdra": 1631,
      "Ġimpro": 1632,
      "Ġwrit": 1633,
      "Ġcond": 1634,
      "ential": 1635,
      "ĠWhen": 1636,
      "alf": 1637,
      "Ġcountry": 1638,
      "Ġes": 1639,
      "ĠEng": 1640,
      "aim": 1641,
      "iven": 1642,
      "Ġindust": 1643,
      "Ġever": 1644,
      "aster": 1645,
      "agement": 1646,
      "une": 1647,
      "Ġcheck": 1648,
      "itive": 1649,
      "Ġcreat": 1650,
      "ills": 1651,
      "ee": 1652,
      "Ġrecord": 1653,
      "ocus": 1654,
      "11": 1655,
      "ividual": 1656,
      "Ġpain": 1657,
      "Ġcalled": 1658,
      "veral": 1659,
      "Ġshort": 1660,
      "ĠGod": 1661,
      "Ġside": 1662,
      "Ġsw": 1663,
      "Ġmen": 1664,
      "Ġlearn": 1665,
      "ane": 1666,
      "Ġbody": 1667,
      "br": 1668,
      "Ġhouse": 1669,
      "ĠUniversity": 1670,
      "enn": 1671,
      "Ġbecome": 1672,
      "ern": 1673,
      "Ġcame": 1674,
      "ON": 1675,
      "side": 1676,
      "ĠMay": 1677,
      "Ġfar": 1678,
      "Ġdone": 1679,
      "aterial": 1680,
      "ĠWhat": 1681,
      "Ġconne": 1682,
      "What": 1683,
      "Ġbene": 1684,
      "ĠWith": 1685,
      "Ġtrad": 1686,
      "Ġair": 1687,
      "Ġproducts": 1688,
      "Ġbit": 1689,
      "ĠAt": 1690,
      "Ġocc": 1691,
      "Ġstory": 1692,
      "Ġoffic": 1693,
      "Ġalready": 1694,
      "Ġ30": 1695,
      "Ġinclude": 1696,
      "Ġ11": 1697,
      "Ġmembers": 1698,
      "Ġaccount": 1699,
      "err": 1700,
      "'m": 1701,
      "Ġmar": 1702,
      "Ġfollowing": 1703,
      "ored": 1704,
      "Ġline": 1705,
      "ained": 1706,
      "Ġoffer": 1707,
      "Ġbuy": 1708,
      "ery": 1709,
      "ots": 1710,
      "Ġpossible": 1711,
      "Ġsocial": 1712,
      "Ġcertain": 1713,
      "son": 1714,
      "Ġfeat": 1715,
      "ency": 1716,
      "Ġwent": 1717,
      "over": 1718,
      "For": 1719,
      "Ġmusic": 1720,
      "ES": 1721,
      "ush": 1722,
      "Ġenjoy": 1723,
      "Ġmean": 1724,
      "Ġfore": 1725,
      "Ġ|": 1726,
      "Ġcontrol": 1727,
      "rap": 1728,
      "Ġresearch": 1729,
      "Ġpa": 1730,
      "Ġpersonal": 1731,
      "viron": 1732,
      "ĠCar": 1733,
      "Ġmeans": 1734,
      "ither": 1735,
      "rop": 1736,
      "Ġindividual": 1737,
      "Ġgetting": 1738,
      "ows": 1739,
      "ands": 1740,
      "Ġmakes": 1741,
      "Ġothers": 1742,
      "Ġneeds": 1743,
      "Ġmil": 1744,
      "Ġseveral": 1745,
      "pportun": 1746,
      "St": 1747,
      "ĠFl": 1748,
      "Ġreview": 1749,
      "Ġgovernment": 1750,
      "Ġhold": 1751,
      "Ġcou": 1752,
      "Ġlive": 1753,
      "ails": 1754,
      "Ġnews": 1755,
      "Ġmajor": 1756,
      "Ġleast": 1757,
      "ĠAmerican": 1758,
      "Ġwomen": 1759,
      "--": 1760,
      "Ġdoing": 1761,
      "uture": 1762,
      "Ġtre": 1763,
      "Ġbased": 1764,
      "Ġeasy": 1765,
      "Ġtook": 1766,
      "Ġreturn": 1767,
      "ances": 1768,
      "oice": 1769,
      "Ġnon": 1770,
      "'ve": 1771,
      "Ġmind": 1772,
      "Ġlim": 1773,
      "wh": 1774,
      "Ġeduc": 1775,
      "ique": 1776,
      "Ġmillion": 1777,
      "atic": 1778,
      "Ġpot": 1779,
      "AT": 1780,
      "ians": 1781,
      "Ġfocus": 1782,
      "Ġthought": 1783,
      "Ġfav": 1784,
      "fort": 1785,
      "Ġla": 1786,
      "osed": 1787,
      "Ġquality": 1788,
      "AR": 1789,
      "for": 1790,
      "Ġdoesn": 1791,
      "Ġcamp": 1792,
      "Ġactually": 1793,
      "Ġbenef": 1794,
      "Ġyoung": 1795,
      "uff": 1796,
      "not": 1797,
      "mber": 1798,
      "Ġopportun": 1799,
      "lement": 1800,
      "duct": 1801,
      "Ġpercent": 1802,
      "oor": 1803,
      "idd": 1804,
      "ĠJohn": 1805,
      "ches": 1806,
      "Ġfilm": 1807,
      "wards": 1808,
      "fer": 1809,
      "Ġclear": 1810,
      "aps": 1811,
      "most": 1812,
      "Ġcomes": 1813,
      "orts": 1814,
      "ption": 1815,
      "Ġcharact": 1816,
      "Ġvisit": 1817,
      "uro": 1818,
      "eral": 1819,
      "ully": 1820,
      "app": 1821,
      "Ġwebsite": 1822,
      "Ġwon": 1823,
      "ĠMy": 1824,
      "Ġparticular": 1825,
      "ched": 1826,
      "cially": 1827,
      "ides": 1828,
      "Ġdeal": 1829,
      "Ġeconom": 1830,
      "Ġanal": 1831,
      "Ġcreate": 1832,
      "Ġmaterial": 1833,
      "Ġstarted": 1834,
      "ĠSte": 1835,
      "Ġorig": 1836,
      "Ġacross": 1837,
      "Ġhuman": 1838,
      "aff": 1839,
      "Ġey": 1840,
      "Ġmom": 1841,
      "ĠSu": 1842,
      "eb": 1843,
      "Ġnet": 1844,
      "aken": 1845,
      "ones": 1846,
      "Ġyet": 1847,
      "Ġreason": 1848,
      "vironment": 1849,
      "Ġquick": 1850,
      "crib": 1851,
      "Ġlow": 1852,
      "ĠAm": 1853,
      "ference": 1854,
      "Ġmult": 1855,
      "Ġtold": 1856,
      "There": 1857,
      "AN": 1858,
      "ĠApp": 1859,
      "irm": 1860,
      "Ġsoft": 1861,
      "Ġonce": 1862,
      "Ġinvol": 1863,
      "Ġdevelopment": 1864,
      "yle": 1865,
      "arr": 1866,
      "urther": 1867,
      "lished": 1868,
      "Ġfund": 1869,
      "Ġpar": 1870,
      "OR": 1871,
      "Ġfuture": 1872,
      "Ġhappen": 1873,
      "Ġelect": 1874,
      "ĠRep": 1875,
      "lf": 1876,
      "Ġce": 1877,
      "Ġtax": 1878,
      "ĠCo": 1879,
      "ĠUnited": 1880,
      "ai": 1881,
      "ĠÂ": 1882,
      "Ġpolit": 1883,
      "Ġlater": 1884,
      "ony": 1885,
      "Ġfriends": 1886,
      "Ġ--": 1887,
      "Ġvers": 1888,
      "Ġmonths": 1889,
      "Ġexample": 1890,
      "pro": 1891,
      "Ġcontact": 1892,
      "ama": 1893,
      "Ġcity": 1894,
      "Ġkey": 1895,
      "Ġ16": 1896,
      "Ġcut": 1897,
      "Ġlink": 1898,
      "Ġearly": 1899,
      "ĠMed": 1900,
      "And": 1901,
      "Ġheart": 1902,
      "Ġ14": 1903,
      "Ġhours": 1904,
      "ulation": 1905,
      "ips": 1906,
      "ateg": 1907,
      "Ġstrong": 1908,
      "Ġtyp": 1909,
      "ister": 1910,
      "Ġshare": 1911,
      "ape": 1912,
      "ift": 1913,
      "Ġfive": 1914,
      "Ġris": 1915,
      "âĢĵ": 1916,
      "Ġbeaut": 1917,
      "book": 1918,
      "cle": 1919,
      "Ġbring": 1920,
      "Ġstudy": 1921,
      "ĠIntern": 1922,
      "ĠThese": 1923,
      "Ġhig": 1924,
      "Ġemail": 1925,
      "Ġident": 1926,
      "Ġauthor": 1927,
      "Ġwa": 1928,
      "Ġredu": 1929,
      "de": 1930,
      "Ġknown": 1931,
      "Ġbelow": 1932,
      "room": 1933,
      "An": 1934,
      "ĠX": 1935,
      "Ġappear": 1936,
      "Ġspecific": 1937,
      "Ġperfect": 1938,
      "Ġsound": 1939,
      "ograph": 1940,
      "ource": 1941,
      "use": 1942,
      "resent": 1943,
      "Ġpriv": 1944,
      "ges": 1945,
      "che": 1946,
      "ĠBr": 1947,
      "Ġfield": 1948,
      "'ll": 1949,
      "Ġhistory": 1950,
      "Ġvideo": 1951,
      "Ġcover": 1952,
      "Ġbegin": 1953,
      "Ġrequire": 1954,
      "Ġet": 1955,
      "ights": 1956,
      "ĠState": 1957,
      "reet": 1958,
      "iday": 1959,
      "Ġtem": 1960,
      "illed": 1961,
      "Ġsum": 1962,
      "Ġpack": 1963,
      "Ġpress": 1964,
      "Ġhot": 1965,
      "ĠWor": 1966,
      "But": 1967,
      "Ġclose": 1968,
      "ĠSy": 1969,
      "Ġstep": 1970,
      "Ġface": 1971,
      "Ġdiscuss": 1972,
      "urity": 1973,
      "Ġprob": 1974,
      "acy": 1975,
      "Ġcomb": 1976,
      "15": 1977,
      "oon": 1978,
      "unch": 1979,
      "ster": 1980,
      "ourn": 1981,
      "itor": 1982,
      "lev": 1983,
      "Ġmor": 1984,
      "par": 1985,
      "Ġitem": 1986,
      "icy": 1987,
      "Ġpurch": 1988,
      "iod": 1989,
      "Ġpage": 1990,
      "idence": 1991,
      "utions": 1992,
      "ino": 1993,
      "ĠOne": 1994,
      "ources": 1995,
      "Ġrelations": 1996,
      "lling": 1997,
      "ĠPr": 1998,
      "Ġcult": 1999,
      "ober": 2000,
      "Ġant": 2001,
      "Ġwalk": 2002,
      "Ġamong": 2003,
      "ĠEn": 2004,
      "Ġwhole": 2005,
      "sw": 2006,
      "Ġquestion": 2007,
      "osp": 2008,
      "Ġcompet": 2009,
      "Ġ2012": 2010,
      "Ġsingle": 2011,
      "ler": 2012,
      "ĠCont": 2013,
      "ilities": 2014,
      "Ġeverything": 2015,
      "Ġchall": 2016,
      "Ġcompan": 2017,
      "oose": 2018,
      "ural": 2019,
      "Ġpick": 2020,
      "Ġvari": 2021,
      "Ġhalf": 2022,
      "Ġaddress": 2023,
      "Ġsomeone": 2024,
      "ĠNe": 2025,
      "af": 2026,
      "How": 2027,
      "ued": 2028,
      "ball": 2029,
      "ners": 2030,
      "ned": 2031,
      "Ġrespons": 2032,
      "though": 2033,
      "Ġtaking": 2034,
      "go": 2035,
      "Ġage": 2036,
      "Ġindustry": 2037,
      "Ġwind": 2038,
      "hod": 2039,
      "Ġmess": 2040,
      "load": 2041,
      "Ġseen": 2042,
      "Ġclaim": 2043,
      "ensive": 2044,
      "ĠHowever": 2045,
      "ilar": 2046,
      "new": 2047,
      "Ġspace": 2048,
      "play": 2049,
      "Ġwhether": 2050,
      "Ġpie": 2051,
      "Ġbelieve": 2052,
      "imate": 2053,
      "Ġminutes": 2054,
      "Ġener": 2055,
      "Ġstay": 2056,
      "ĠInst": 2057,
      "Ġago": 2058,
      "ĠDo": 2059,
      "When": 2060,
      "ĠCal": 2061,
      "On": 2062,
      "Ġens": 2063,
      "ogn": 2064,
      "ison": 2065,
      "ided": 2066,
      "gle": 2067,
      "rew": 2068,
      "Ġtot": 2069,
      "ilt": 2070,
      "Ġgames": 2071,
      "aces": 2072,
      "Ġsci": 2073,
      "rain": 2074,
      "fic": 2075,
      "ĠYork": 2076,
      "ctor": 2077,
      "hers": 2078,
      "Ġbreak": 2079,
      "16": 2080,
      "Ġess": 2081,
      "selves": 2082,
      "Ġsuper": 2083,
      "Ġenc": 2084,
      "Ġmedia": 2085,
      "lege": 2086,
      "Ġgiven": 2087,
      "Ġ/": 2088,
      "ply": 2089,
      "iver": 2090,
      "abor": 2091,
      "atural": 2092,
      "mb": 2093,
      "pecially": 2094,
      "ĠNot": 2095,
      "ging": 2096,
      "So": 2097,
      "Ġcomput": 2098,
      "Ġissues": 2099,
      "Ġ17": 2100,
      "Ġste": 2101,
      "ĠMe": 2102,
      "Ġhope": 2103,
      "Ġphys": 2104,
      "ille": 2105,
      "Ġpub": 2106,
      "Ġgirl": 2107,
      "Ġ13": 2108,
      "Ġ100": 2109,
      "fully": 2110,
      "ggest": 2111,
      "AS": 2112,
      "ibility": 2113,
      "ĠMc": 2114,
      "tain": 2115,
      "Ġenvironment": 2116,
      "ĠGu": 2117,
      "ĠComp": 2118,
      "Ġdel": 2119,
      "Ġstore": 2120,
      "Ġanything": 2121,
      "ĠCount": 2122,
      "Ġdeli": 2123,
      "Ġfre": 2124,
      "ĠStates": 2125,
      "rict": 2126,
      "ledge": 2127,
      "iously": 2128,
      "Ġfront": 2129,
      "Ġsearch": 2130,
      "Ġprice": 2131,
      "Ch": 2132,
      "Ġcontent": 2133,
      "Ġcommon": 2134,
      "Ġfall": 2135,
      "rown": 2136,
      "Ġidea": 2137,
      "Ġamount": 2138,
      "Ġcra": 2139,
      "ĠEuro": 2140,
      "Ġabove": 2141,
      "13": 2142,
      "Ġjo": 2143,
      "Ġdue": 2144,
      "ĠCity": 2145,
      "Ġbad": 2146,
      "Ġvol": 2147,
      "18": 2148,
      "Ġmanag": 2149,
      "Ġrecomm": 2150,
      "dd": 2151,
      "Ġresults": 2152,
      "vent": 2153,
      "ox": 2154,
      "Ġmeas": 2155,
      "Ġclean": 2156,
      "ĠServ": 2157,
      "Ġplease": 2158,
      "ental": 2159,
      "Ġrecommend": 2160,
      "EN": 2161,
      "irt": 2162,
      "Ġseries": 2163,
      "Ġwatch": 2164,
      "Ġ25": 2165,
      "Ġquestions": 2166,
      "IS": 2167,
      "ED": 2168,
      "itted": 2169,
      "Ġeff": 2170,
      "cri": 2171,
      "Ġtool": 2172,
      "urch": 2173,
      "Ġport": 2174,
      "ĠNational": 2175,
      "Ġperiod": 2176,
      "Ġcred": 2177,
      "Ġsix": 2178,
      "Ġconsider": 2179,
      "asing": 2180,
      "14": 2181,
      "Ġaud": 2182,
      "Ġalmost": 2183,
      "Ġmot": 2184,
      "Ġz": 2185,
      "Ġ24": 2186,
      "Ġ#": 2187,
      "Ġcompanies": 2188,
      "Ġsuggest": 2189,
      "Ġtechnology": 2190,
      "Ġcal": 2191,
      "Ġeither": 2192,
      "Ġrange": 2193,
      "Ġfurther": 2194,
      "Ġbar": 2195,
      "Re": 2196,
      "ators": 2197,
      "Ġtaken": 2198,
      "back": 2199,
      "Ġself": 2200,
      "Ġwond": 2201,
      "org": 2202,
      "come": 2203,
      "used": 2204,
      "Ġaff": 2205,
      "uation": 2206,
      "IT": 2207,
      "ried": 2208,
      "ĠChe": 2209,
      "Ġthird": 2210,
      "Ġblog": 2211,
      "Ġ:": 2212,
      "Ġtrying": 2213,
      "//": 2214,
      "Ġbuilding": 2215,
      "Ġconcer": 2216,
      "AL": 2217,
      "Ġcell": 2218,
      "Ġentire": 2219,
      "my": 2220,
      "Ġnecess": 2221,
      "elt": 2222,
      "Ġlikely": 2223,
      "anks": 2224,
      "ĠMin": 2225,
      "Ġenergy": 2226,
      "Ġcir": 2227,
      "ĠGo": 2228,
      "sy": 2229,
      "cell": 2230,
      "ancial": 2231,
      "Ġdeb": 2232,
      "Ġblack": 2233,
      "Ġeveryone": 2234,
      "rodu": 2235,
      "ams": 2236,
      "opy": 2237,
      "Ġcrit": 2238,
      "Ġworks": 2239,
      "Ġwar": 2240,
      "ĠOur": 2241,
      "Ġrepl": 2242,
      "Ġbrand": 2243,
      "ficult": 2244,
      "ively": 2245,
      "Ġfeatures": 2246,
      "Ġfavor": 2247,
      "ask": 2248,
      "Ġdou": 2249,
      "Ġwanted": 2250,
      "ung": 2251,
      "ĠYour": 2252,
      "aur": 2253,
      "200": 2254,
      "Ġmag": 2255,
      "ples": 2256,
      "obal": 2257,
      "://": 2258,
      ".)": 2259,
      "Ġrelationship": 2260,
      "Ġ2013": 2261,
      "Ġtravel": 2262,
      "ĠPres": 2263,
      "itting": 2264,
      "gest": 2265,
      "Ġinstall": 2266,
      "Ġcompl": 2267,
      "angu": 2268,
      "ially": 2269,
      "Ġtraining": 2270,
      "Ġpict": 2271,
      "Ġpoints": 2272,
      "Ġhowever": 2273,
      "Ġtrack": 2274,
      "Ġmiss": 2275,
      "Ġdocu": 2276,
      "Ġsent": 2277,
      "Ġtext": 2278,
      "Ġdig": 2279,
      "Ġsimple": 2280,
      "Ġpret": 2281,
      "ĠEurope": 2282,
      "Ġasked": 2283,
      "Ġexc": 2284,
      "time": 2285,
      "Ġsex": 2286,
      "Ġquite": 2287,
      "oid": 2288,
      "Ġareas": 2289,
      "ĠJan": 2290,
      "ires": 2291,
      "ĠAfter": 2292,
      "rie": 2293,
      "Ġvarious": 2294,
      "Ġ50": 2295,
      "ĠTw": 2296,
      "17": 2297,
      "Ġespecially": 2298,
      "rug": 2299,
      "25": 2300,
      "Ġtype": 2301,
      "itch": 2302,
      "lex": 2303,
      "ication": 2304,
      "gress": 2305,
      "ĠEd": 2306,
      "Ġneeded": 2307,
      "ĠMr": 2308,
      "Ġland": 2309,
      "Ġsignific": 2310,
      "year": 2311,
      "omes": 2312,
      "ites": 2313,
      "ĠWorld": 2314,
      "Ġwhite": 2315,
      "Ġcustomers": 2316,
      "Ġelse": 2317,
      "Ġparticip": 2318,
      "Ġrather": 2319,
      "Ġdifficult": 2320,
      "Ġabs": 2321,
      "ĠPe": 2322,
      "Ġvalue": 2323,
      "vert": 2324,
      "Ġweb": 2325,
      "ops": 2326,
      "ili": 2327,
      "Ġparent": 2328,
      "where": 2329,
      "umb": 2330,
      "iol": 2331,
      "Ġoil": 2332,
      "Ġhost": 2333,
      "iful": 2334,
      "To": 2335,
      "Ġprobably": 2336,
      "IC": 2337,
      "resh": 2338,
      "Ġcoming": 2339,
      "roll": 2340,
      "Ġfoot": 2341,
      "Ġaccording": 2342,
      "Ġdeath": 2343,
      "ification": 2344,
      "Ġdam": 2345,
      "ĠAust": 2346,
      "ĠSec": 2347,
      "Ġpretty": 2348,
      "chie": 2349,
      "Ġexist": 2350,
      "Ġrequired": 2351,
      "Ġways": 2352,
      "nding": 2353,
      "Ġmanagement": 2354,
      "Ġred": 2355,
      "Ġevents": 2356,
      "oved": 2357,
      "Ġliving": 2358,
      "Ġissue": 2359,
      "ibr": 2360,
      "Ġgra": 2361,
      "ruction": 2362,
      "Ġimprove": 2363,
      "ume": 2364,
      "Ġoffers": 2365,
      "Ġsoon": 2366,
      "ĠNorth": 2367,
      "US": 2368,
      "Ġoffice": 2369,
      "icated": 2370,
      "Ġbehind": 2371,
      "Ġupon": 2372,
      "Ġsimply": 2373,
      "Ġproblems": 2374,
      "Ġposition": 2375,
      "Ġperformance": 2376,
      "Ġwords": 2377,
      "Ġprotect": 2378,
      "Ġprovides": 2379,
      "olution": 2380,
      "Ġinj": 2381,
      "Ġcharacter": 2382,
      "nes": 2383,
      "Ġaction": 2384,
      "Ġmethod": 2385,
      "itten": 2386,
      "Ġnothing": 2387,
      "Ġisn": 2388,
      "ĠPart": 2389,
      "Ġcontinue": 2390,
      "Ġrisk": 2391,
      "ĠGl": 2392,
      "ĠWill": 2393,
      "fact": 2394,
      "Ġcard": 2395,
      "ĠGe": 2396,
      "ĠGr": 2397,
      "Ġinit": 2398,
      "Ġexperien": 2399,
      "Ġansw": 2400,
      "val": 2401,
      "ĠSm": 2402,
      "ĠHis": 2403,
      "apt": 2404,
      "ĠIm": 2405,
      "itional": 2406,
      "Ġadded": 2407,
      "Ġrepresent": 2408,
      "eth": 2409,
      "ĠDep": 2410,
      "ĠQu": 2411,
      "Ġprofessional": 2412,
      "Ġweeks": 2413,
      "minist": 2414,
      "ables": 2415,
      "ze": 2416,
      "Ġsong": 2417,
      "Ġswe": 2418,
      "Ġdeterm": 2419,
      "Ġhy": 2420,
      "Ġgen": 2421,
      "Ġannoun": 2422,
      "Ġassist": 2423,
      "pril": 2424,
      "Ġmatter": 2425,
      "head": 2426,
      "era": 2427,
      "ĠSouth": 2428,
      "obile": 2429,
      "urance": 2430,
      "Ġpopular": 2431,
      "Ġlog": 2432,
      "ĠSchool": 2433,
      "Ġprovided": 2434,
      "Ġground": 2435,
      "aching": 2436,
      "Al": 2437,
      "ief": 2438,
      "Ġinfl": 2439,
      "Ġsimilar": 2440,
      "Ġfail": 2441,
      "Ġinn": 2442,
      "ĠPark": 2443,
      "ĠMark": 2444,
      "ĠAf": 2445,
      "Ġprep": 2446,
      "ole": 2447,
      "anc": 2448,
      "Ã©": 2449,
      "Ġupd": 2450,
      "reme": 2451,
      "Ġsize": 2452,
      "ĠDes": 2453,
      "Ġphone": 2454,
      "Ġrad": 2455,
      "Ġ2011": 2456,
      "yn": 2457,
      "ades": 2458,
      "Ġproperty": 2459,
      "Ġaccept": 2460,
      "pper": 2461,
      "ada": 2462,
      "Ġfinal": 2463,
      "Ġparty": 2464,
      "Ġsubject": 2465,
      "Ġfire": 2466,
      "clus": 2467,
      "ĠCenter": 2468,
      "....": 2469,
      "âĢ¢": 2470,
      "Ġtou": 2471,
      "Ġrequest": 2472,
      "ĠAmerica": 2473,
      "Ġtrue": 2474,
      "Ġstaff": 2475,
      "ĠDis": 2476,
      "oe": 2477,
      "Ġstat": 2478,
      "Ġtakes": 2479,
      "ises": 2480,
      "Ġrole": 2481,
      "reg": 2482,
      "ĠPer": 2483,
      "icro": 2484,
      "ĠBar": 2485,
      "AC": 2486,
      "RE": 2487,
      "ĠAb": 2488,
      "Ġwriting": 2489,
      "Ġincludes": 2490,
      "Ġattack": 2491,
      "Ġconnect": 2492,
      "ules": 2493,
      "uge": 2494,
      "Ġsignificant": 2495,
      "ĠPol": 2496,
      "Ġgeneral": 2497,
      "sc": 2498,
      "Ġheld": 2499,
      "ees": 2500,
      "oph": 2501,
      "Ġseems": 2502,
      "Ġimpact": 2503,
      "Ġforward": 2504,
      "lt": 2505,
      "Ġeducation": 2506,
      "ĠTH": 2507,
      "Ġhon": 2508,
      "Ġincrease": 2509,
      "Ġkids": 2510,
      "Ġcook": 2511,
      "ĠCor": 2512,
      "mit": 2513,
      "ĠOct": 2514,
      "ĠJu": 2515,
      "Ġinde": 2516,
      "Ġconsum": 2517,
      "ID": 2518,
      "aily": 2519,
      "Ġchanges": 2520,
      "ĠJust": 2521,
      "empt": 2522,
      "Ġrecent": 2523,
      "verage": 2524,
      "Ġassoci": 2525,
      "Ġknowledge": 2526,
      "Ġshows": 2527,
      "oogle": 2528,
      "Ġnatural": 2529,
      "Ġrecogn": 2530,
      "Ġroad": 2531,
      "aving": 2532,
      "Ġcannot": 2533,
      "medi": 2534,
      "Ġrespect": 2535,
      "Ġoutside": 2536,
      "ĠKe": 2537,
      "face": 2538,
      "ival": 2539,
      "Ġcoll": 2540,
      "na": 2541,
      "Ġblood": 2542,
      "Ġfa": 2543,
      "Ġestab": 2544,
      "ĠTra": 2545,
      "ĠDr": 2546,
      "Ġsaw": 2547,
      "Ġlonger": 2548,
      "leased": 2549,
      "Ġmodel": 2550,
      "ffe": 2551,
      "Ġtreatment": 2552,
      "Ġdate": 2553,
      "Ġselect": 2554,
      "Ġskin": 2555,
      "overed": 2556,
      "Ġfig": 2557,
      "gu": 2558,
      "Ġbed": 2559,
      "Ġop": 2560,
      "Ġcreated": 2561,
      "ĠAct": 2562,
      "Ġunique": 2563,
      "Ġball": 2564,
      "Ġextra": 2565,
      "Ġdom": 2566,
      "ĠJune": 2567,
      "Ġregard": 2568,
      "Ġyourself": 2569,
      "hib": 2570,
      "put": 2571,
      "ĠSome": 2572,
      "22": 2573,
      "arget": 2574,
      "iter": 2575,
      "ĠMarch": 2576,
      "__": 2577,
      "Ġsoftware": 2578,
      "amed": 2579,
      "Ġnational": 2580,
      "Ġwide": 2581,
      "fl": 2582,
      "Ġstop": 2583,
      "ĠAug": 2584,
      "yl": 2585,
      "earch": 2586,
      "Ġfunction": 2587,
      "erc": 2588,
      "Ġofficial": 2589,
      "Ġcollect": 2590,
      "Ġdefin": 2591,
      "Ġopp": 2592,
      "Ġoptions": 2593,
      "Ġengine": 2594,
      "Ġsecurity": 2595,
      "astic": 2596,
      "Ġagree": 2597,
      "iet": 2598,
      "Ġlay": 2599,
      "idge": 2600,
      "Ġhit": 2601,
      "ude": 2602,
      "ĠCounty": 2603,
      "Ġmoment": 2604,
      "Ġprint": 2605,
      "Ġsafe": 2606,
      "oring": 2607,
      "Ġcourt": 2608,
      "right": 2609,
      "Ġdog": 2610,
      "Ġarticle": 2611,
      "ring": 2612,
      "Ġopportunity": 2613,
      "ales": 2614,
      "ĠDav": 2615,
      "Ġnetwork": 2616,
      "Ġcouple": 2617,
      "uary": 2618,
      "Ġtit": 2619,
      "Ġbase": 2620,
      "anced": 2621,
      "Ġhtt": 2622,
      "Ġrunning": 2623,
      "Ġspeak": 2624,
      "Ġloss": 2625,
      "Ġ198": 2626,
      "Ġtable": 2627,
      "Ġachie": 2628,
      "Ġmember": 2629,
      "Ġsystems": 2630,
      "Ġ2010": 2631,
      "Ġoriginal": 2632,
      "ufact": 2633,
      "Ġanim": 2634,
      "Ġexpress": 2635,
      "Ġcomputer": 2636,
      "irit": 2637,
      "Ġstri": 2638,
      "Ġrate": 2639,
      "Ġdesigned": 2640,
      "Ġthroughout": 2641,
      "Ġbeautiful": 2642,
      "Ġplayers": 2643,
      "Ġpolitical": 2644,
      "Ġhigher": 2645,
      "rem": 2646,
      "Ġcontrib": 2647,
      "Ġcoun": 2648,
      "ĠStud": 2649,
      "60": 2650,
      "ĠEm": 2651,
      "Ġcause": 2652,
      "Ġbooks": 2653,
      "Ġleave": 2654,
      "Ġfinancial": 2655,
      "Ġlat": 2656,
      "Ġsense": 2657,
      "Ġusually": 2658,
      "Ġpark": 2659,
      "oura": 2660,
      "ciety": 2661,
      "eter": 2662,
      "Ġexam": 2663,
      "iff": 2664,
      "Ġreceive": 2665,
      "Ġemb": 2666,
      "Ġdetails": 2667,
      "iddle": 2668,
      "Ġetc": 2669,
      "Ġdescrib": 2670,
      "Ġmedical": 2671,
      "aced": 2672,
      "rect": 2673,
      "oud": 2674,
      "Ġgrowth": 2675,
      "Ġnorm": 2676,
      "ĠAg": 2677,
      "arter": 2678,
      "Ġworth": 2679,
      "ĠSpe": 2680,
      "ederal": 2681,
      "based": 2682,
      "Ġready": 2683,
      "atory": 2684,
      "izing": 2685,
      "Ġill": 2686,
      "Ġusers": 2687,
      "ĠInc": 2688,
      "ha": 2689,
      "Ġtown": 2690,
      "Ġdest": 2691,
      "ysis": 2692,
      "Ġapplication": 2693,
      "Ġrights": 2694,
      "Ġinside": 2695,
      "ĠPresident": 2696,
      "Ġsle": 2697,
      "Ġanyone": 2698,
      "aining": 2699,
      "Ġversion": 2700,
      "Ġleaders": 2701,
      "Ġmorning": 2702,
      "Ġregular": 2703,
      "ĠApril": 2704,
      "Ġreceived": 2705,
      "ĠBy": 2706,
      "Ġprivate": 2707,
      "ceed": 2708,
      "Ġsales": 2709,
      "Ġaffect": 2710,
      "ĠOb": 2711,
      "Ġrecently": 2712,
      "Ġthemselves": 2713,
      "ashing": 2714,
      "cil": 2715,
      "Ġlost": 2716,
      "oke": 2717,
      "Ġlate": 2718,
      "Ġpotential": 2719,
      "Ġtotal": 2720,
      "Ġensure": 2721,
      "anguage": 2722,
      "Ġsens": 2723,
      "arning": 2724,
      "Ġhands": 2725,
      "ĠDay": 2726,
      "ĠNow": 2727,
      "Ġfast": 2728,
      "Ġbox": 2729,
      "Ġbott": 2730,
      "Ġreading": 2731,
      "Ġfit": 2732,
      "Ġlives": 2733,
      "Ġpatients": 2734,
      "AM": 2735,
      "Ġpers": 2736,
      "istic": 2737,
      "Ġformer": 2738,
      "like": 2739,
      "Ġcurrently": 2740,
      "Ġele": 2741,
      "Ġdeep": 2742,
      "ĠReg": 2743,
      "Ġnice": 2744,
      "ĠWest": 2745,
      "uth": 2746,
      "Ġcareer": 2747,
      "cast": 2748,
      "Ġut": 2749,
      "ma": 2750,
      "ached": 2751,
      "ological": 2752,
      "Ġteac": 2753,
      "Ġdepend": 2754,
      "aturday": 2755,
      "Ġprior": 2756,
      "Ġchoose": 2757,
      "40": 2758,
      "Ġneg": 2759,
      "Ġx": 2760,
      "ana": 2761,
      "ĠBo": 2762,
      "Ġclick": 2763,
      "Ġmach": 2764,
      "aging": 2765,
      "Ġprograms": 2766,
      "off": 2767,
      "ague": 2768,
      "ournal": 2769,
      "Ġobs": 2770,
      "Ġhappy": 2771,
      "Ġ...": 2772,
      "Ġpractice": 2773,
      "Ġwonder": 2774,
      "Ġri": 2775,
      "Ġitself": 2776,
      "Ġcontract": 2777,
      "aign": 2778,
      "Ġpric": 2779,
      "Ġstra": 2780,
      "Ġpolicy": 2781,
      "Ġdecision": 2782,
      "pri": 2783,
      "Ġstruct": 2784,
      "Ġcolor": 2785,
      "ĠHouse": 2786,
      "inary": 2787,
      "ĠDon": 2788,
      "Ġmeeting": 2789,
      "edd": 2790,
      "Ġviol": 2791,
      "ĠPa": 2792,
      "ĠHar": 2793,
      "Ġdeg": 2794,
      "Ġterms": 2795,
      "icles": 2796,
      "With": 2797,
      "nds": 2798,
      "Ġmass": 2799,
      "Ġobject": 2800,
      "Ġcomfort": 2801,
      "Ġgoal": 2802,
      "My": 2803,
      "Ġwasn": 2804,
      "Ġhair": 2805,
      "Ġshall": 2806,
      "oes": 2807,
      "ĠSept": 2808,
      "Ġboard": 2809,
      "Ġdrive": 2810,
      "Ġpaper": 2811,
      "ese": 2812,
      "ession": 2813,
      "ĠEl": 2814,
      "Ġcountries": 2815,
      "Ġexact": 2816,
      "ĠEnglish": 2817,
      "ĠHigh": 2818,
      "hel": 2819,
      "Ġvia": 2820,
      "Ġattend": 2821,
      "Ġlo": 2822,
      "Ġblock": 2823,
      "Ġproduction": 2824,
      "Ġbal": 2825,
      "Ġworked": 2826,
      "artment": 2827,
      "ett": 2828,
      "Ġep": 2829,
      "Ġquickly": 2830,
      "Ġbegan": 2831,
      "rought": 2832,
      "Ġadditional": 2833,
      "ĠMore": 2834,
      "Ġsat": 2835,
      "lier": 2836,
      "haps": 2837,
      "ek": 2838,
      "Ġfirm": 2839,
      "action": 2840,
      "bor": 2841,
      "ĠMich": 2842,
      "Ġappe": 2843,
      "ences": 2844,
      "Ġimm": 2845,
      "ĠSan": 2846,
      "Ġchance": 2847,
      "Ġdrug": 2848,
      "Ġplaying": 2849,
      "uses": 2850,
      "ĠFeb": 2851,
      "Ġitems": 2852,
      "Ġmatch": 2853,
      "Ġ,": 2854,
      "Ġincluded": 2855,
      "Ġrev": 2856,
      "ĠAustral": 2857,
      "ament": 2858,
      "Ġ40": 2859,
      "Ġarri": 2860,
      "Ġability": 2861,
      "airs": 2862,
      "ground": 2863,
      "ĠWar": 2864,
      "Ġgoes": 2865,
      "ĠAssoci": 2866,
      "imum": 2867,
      "Ġclos": 2868,
      "Ġinsp": 2869,
      "Ġcam": 2870,
      "ux": 2871,
      "Ġmother": 2872,
      "azing": 2873,
      "ĠCalif": 2874,
      "Ġpresident": 2875,
      "Ġ2014": 2876,
      "unt": 2877,
      "Ġcele": 2878,
      "ĠArt": 2879,
      "Ġ21": 2880,
      "21": 2881,
      "Ġwoman": 2882,
      "Ġur": 2883,
      "aby": 2884,
      "Ġinvolved": 2885,
      "All": 2886,
      "Ġfight": 2887,
      "irth": 2888,
      "atives": 2889,
      "Ġpan": 2890,
      "ĠPar": 2891,
      "Ġdise": 2892,
      "Ġgave": 2893,
      "attle": 2894,
      "At": 2895,
      "Ġlevels": 2896,
      "Ġbecame": 2897,
      "su": 2898,
      "Ġcy": 2899,
      "erve": 2900,
      "Ġsqu": 2901,
      "Ġstyle": 2902,
      "Ġactivities": 2903,
      "Ġprim": 2904,
      "ming": 2905,
      "asons": 2906,
      "mon": 2907,
      "Ġtarget": 2908,
      "ĠUs": 2909,
      "Ġwall": 2910,
      "24": 2911,
      "Our": 2912,
      "ĠJuly": 2913,
      "Ġuser": 2914,
      "ĠWhile": 2915,
      "atform": 2916,
      "OU": 2917,
      "Ġround": 2918,
      "rel": 2919,
      "onse": 2920,
      "ham": 2921,
      "Ġmyself": 2922,
      "Ġcredit": 2923,
      "Ġimmedi": 2924,
      "Ġwritten": 2925,
      "Ġmix": 2926,
      "adem": 2927,
      "reng": 2928,
      "Ġcool": 2929,
      "Ġsil": 2930,
      "Ġremember": 2931,
      "ĠHealth": 2932,
      "Ġveh": 2933,
      "Ġinstead": 2934,
      "ING": 2935,
      "pose": 2936,
      "bit": 2937,
      "ris": 2938,
      "ĠRed": 2939,
      "Ġ2009": 2940,
      "OT": 2941,
      "Ġlegal": 2942,
      "ĠMon": 2943,
      "Ġmovie": 2944,
      "ĠCour": 2945,
      "ĠChar": 2946,
      "Ġautom": 2947,
      "Ġnecessary": 2948,
      "Ġlatest": 2949,
      "OS": 2950,
      "light": 2951,
      "Ġintrodu": 2952,
      "Ġcases": 2953,
      "Ġlearning": 2954,
      "Ġinternational": 2955,
      "hood": 2956,
      "Ġfile": 2957,
      "ĠVal": 2958,
      "Ġjud": 2959,
      "Ġcustomer": 2960,
      "Ġlooks": 2961,
      "unday": 2962,
      "Ġbuilt": 2963,
      "Ġdefe": 2964,
      "Ġdecided": 2965,
      "ny": 2966,
      "'d": 2967,
      "Ġsus": 2968,
      "That": 2969,
      "Ġbur": 2970,
      "Ġeasily": 2971,
      "ornia": 2972,
      "Ġfelt": 2973,
      "ications": 2974,
      "Ġrelease": 2975,
      "Ġhimself": 2976,
      "Ġsett": 2977,
      "iam": 2978,
      "illing": 2979,
      "Ġsummer": 2980,
      "ĠOff": 2981,
      "Ġvict": 2982,
      "itc": 2983,
      "Ġstandard": 2984,
      "Ġapproach": 2985,
      "Ġinvestig": 2986,
      "Ġconditions": 2987,
      "itte": 2988,
      "ecut": 2989,
      "onday": 2990,
      "Ġmanufact": 2991,
      "ĠInt": 2992,
      "Ġgrad": 2993,
      "Ġpropos": 2994,
      "str": 2995,
      "iction": 2996,
      "Ġsurpr": 2997,
      "ĠSw": 2998,
      "Ġattempt": 2999,
      "Ġstock": 3000,
      "Ġboy": 3001,
      "Ġsn": 3002,
      "Ġmention": 3003,
      "Ġlab": 3004,
      "Ġgroups": 3005,
      "ought": 3006,
      "Ġexcept": 3007,
      "Ġcas": 3008,
      "Ġtour": 3009,
      "Ġdraw": 3010,
      "Sh": 3011,
      "Ġdownload": 3012,
      "ms": 3013,
      "Ġlower": 3014,
      "ĠBro": 3015,
      "ĠTV": 3016,
      "key": 3017,
      "Ġstudent": 3018,
      "Ġwrong": 3019,
      "Ġones": 3020,
      "ĠPat": 3021,
      "Ġord": 3022,
      "Ġstru": 3023,
      "Ġ23": 3024,
      "Ġattention": 3025,
      "ĠAfric": 3026,
      "Ġemer": 3027,
      "Ġdisplay": 3028,
      "Ġideas": 3029,
      "erous": 3030,
      "Ġcampaign": 3031,
      "ĠDepartment": 3032,
      "just": 3033,
      "ening": 3034,
      "ĠBu": 3035,
      "Ġglobal": 3036,
      "ĠHere": 3037,
      "ovember": 3038,
      "Ġskills": 3039,
      "ester": 3040,
      "Be": 3041,
      "ville": 3042,
      "itter": 3043,
      "rote": 3044,
      "ĠNews": 3045,
      "Ġeyes": 3046,
      "itary": 3047,
      "Ġpred": 3048,
      "aves": 3049,
      "Ġfavorite": 3050,
      "Ġscreen": 3051,
      "Ġsaying": 3052,
      "Ph": 3053,
      "Ġcosts": 3054,
      "ky": 3055,
      "ĠFin": 3056,
      "ule": 3057,
      "Ġcand": 3058,
      "wood": 3059,
      "Ġsaf": 3060,
      "Ġprojects": 3061,
      "aught": 3062,
      "Ġaw": 3063,
      "ĠBrit": 3064,
      "ĠFace": 3065,
      "Ġfair": 3066,
      "enty": 3067,
      "Ġplayed": 3068,
      "ĠAugust": 3069,
      "23": 3070,
      "Ġrelated": 3071,
      "hern": 3072,
      "Ġknew": 3073,
      "Ġleading": 3074,
      "alt": 3075,
      "Ġimage": 3076,
      "Ġsun": 3077,
      "fficient": 3078,
      "Ġ2015": 3079,
      "Ġwrite": 3080,
      "Ġdocument": 3081,
      "Ġclients": 3082,
      "Ġsell": 3083,
      "Ġdecl": 3084,
      "ipment": 3085,
      "usiness": 3086,
      "Ġallows": 3087,
      "ests": 3088,
      "Ġapply": 3089,
      "ĠMus": 3090,
      "Ġdead": 3091,
      "Ġheard": 3092,
      "idered": 3093,
      "Ġ2008": 3094,
      "ray": 3095,
      "Ġresources": 3096,
      "Ġreported": 3097,
      "ram": 3098,
      "Ġhuge": 3099,
      "sec": 3100,
      "Ġhor": 3101,
      "Ġled": 3102,
      "ĠGoogle": 3103,
      "ĠOf": 3104,
      "Ġrout": 3105,
      "Ġhear": 3106,
      "iple": 3107,
      "Ġpull": 3108,
      "Ġdoor": 3109,
      "ĠFriday": 3110,
      "press": 3111,
      "ishing": 3112,
      "Ġencoura": 3113,
      "Ġcomment": 3114,
      "itution": 3115,
      "aly": 3116,
      "Ġfresh": 3117,
      "Ġmodern": 3118,
      "ĠCalifornia": 3119,
      "Ġchoice": 3120,
      "Ġparts": 3121,
      "Ġpolice": 3122,
      "ĠBlack": 3123,
      "Ġaverage": 3124,
      "oul": 3125,
      "70": 3126,
      "Ġtouch": 3127,
      "Ġbi": 3128,
      "Ġinteresting": 3129,
      "Ġ22": 3130,
      "Ġ28": 3131,
      "Ġstates": 3132,
      "cip": 3133,
      "Ġeffective": 3134,
      "aged": 3135,
      "Ġtrust": 3136,
      "Ġparents": 3137,
      "Ġplans": 3138,
      "Ġintegr": 3139,
      "One": 3140,
      "avy": 3141,
      "ĠJanuary": 3142,
      "ald": 3143,
      "ĠSch": 3144,
      "Ġplatform": 3145,
      "LE": 3146,
      "ivity": 3147,
      "ĠSci": 3148,
      "ĠHer": 3149,
      "Ġenter": 3150,
      "Ġdrink": 3151,
      "Ġsepar": 3152,
      "Ġgets": 3153,
      "oom": 3154,
      "Ġdiv": 3155,
      "ĠInternational": 3156,
      "Ġconduct": 3157,
      "Ġbank": 3158,
      "Ġvariety": 3159,
      "Ġhol": 3160,
      "ĠSaturday": 3161,
      "Ġtal": 3162,
      "hold": 3163,
      "enge": 3164,
      "Ġadminist": 3165,
      "ĠAdd": 3166,
      "ĠSer": 3167,
      "ĠSen": 3168,
      "Ġmid": 3169,
      "ĠFrom": 3170,
      "aker": 3171,
      "ns": 3172,
      "Ġsave": 3173,
      "pite": 3174,
      "Ġdevice": 3175,
      "Ġpurchase": 3176,
      "cember": 3177,
      "Ġ2016": 3178,
      "Ġdaily": 3179,
      "Ġpiece": 3180,
      "Ġnature": 3181,
      "board": 3182,
      "Ġexpected": 3183,
      "itation": 3184,
      "Ġprevent": 3185,
      "Ġgiving": 3186,
      "Cl": 3187,
      "pre": 3188,
      "Ġweight": 3189,
      "Ġtypes": 3190,
      "Ġbrought": 3191,
      "aries": 3192,
      "Ġarch": 3193,
      "Ġanswer": 3194,
      "cious": 3195,
      "cription": 3196,
      "Ġstreng": 3197,
      "Ġeconomic": 3198,
      "Ġsubs": 3199,
      "Ġdepart": 3200,
      "Ġthinking": 3201,
      "Ġsold": 3202,
      "ĠThen": 3203,
      "king": 3204,
      "ael": 3205,
      "ension": 3206,
      "error": 3207,
      "ĠGerm": 3208,
      "Ġvac": 3209,
      "Ġmessage": 3210,
      "Ġbud": 3211,
      "Ġcompletely": 3212,
      "omen": 3213,
      "Ġmarketing": 3214,
      "Ġcenter": 3215,
      "bur": 3216,
      "Ġinflu": 3217,
      "Ġwood": 3218,
      "Ġgives": 3219,
      "Ġfell": 3220,
      "Ġinsurance": 3221,
      "Ġpath": 3222,
      "Ġ2017": 3223,
      "verse": 3224,
      "Ġbenefits": 3225,
      "wise": 3226,
      "Ġdetail": 3227,
      "ocr": 3228,
      "Ġdark": 3229,
      "Ġcross": 3230,
      "99": 3231,
      "Ġfeed": 3232,
      "Ġprin": 3233,
      "Ġexcell": 3234,
      "80": 3235,
      "OM": 3236,
      "Ġsafety": 3237,
      "Ġlanguage": 3238,
      "Ġlif": 3239,
      "ondon": 3240,
      "Ġconsidered": 3241,
      "Ġorganization": 3242,
      "Ġsection": 3243,
      "Ġstarting": 3244,
      "ĠRead": 3245,
      "vey": 3246,
      "Ġpublished": 3247,
      "ĠOctober": 3248,
      "iring": 3249,
      "isc": 3250,
      "Ġsource": 3251,
      "AP": 3252,
      "Ġcopy": 3253,
      "After": 3254,
      "Ġamazing": 3255,
      "ĠPost": 3256,
      "Ġdress": 3257,
      "isions": 3258,
      "mission": 3259,
      "Ġgreen": 3260,
      "Ġchalleng": 3261,
      "\".": 3262,
      "orge": 3263,
      "aste": 3264,
      "Ġflow": 3265,
      "Ġplayer": 3266,
      "Ġbehav": 3267,
      "Ġspeed": 3268,
      "ilies": 3269,
      "ĠAut": 3270,
      "ruary": 3271,
      "Ġstuff": 3272,
      "Ġslow": 3273,
      "gar": 3274,
      "sp": 3275,
      "Ġoption": 3276,
      "iding": 3277,
      "Ġrock": 3278,
      "Ġdigital": 3279,
      "name": 3280,
      "Ġhour": 3281,
      "ĠNet": 3282,
      "Ġpositive": 3283,
      "Ġcat": 3284,
      "Ġnation": 3285,
      "ened": 3286,
      "ĠAcc": 3287,
      "www": 3288,
      "cies": 3289,
      "yond": 3290,
      "ĠDem": 3291,
      "Ġanalysis": 3292,
      "itute": 3293,
      "ĠJe": 3294,
      "Ġvot": 3295,
      "ashington": 3296,
      "ivil": 3297,
      "Ġsometimes": 3298,
      "idents": 3299,
      "rs": 3300,
      "uesday": 3301,
      "ĠCommun": 3302,
      "Ġreleased": 3303,
      "Ġsche": 3304,
      "Ġbroad": 3305,
      "Ġlocated": 3306,
      "Ġdirectly": 3307,
      "Ġsituation": 3308,
      "band": 3309,
      "ĠSim": 3310,
      "Ġregist": 3311,
      "Ġeffects": 3312,
      "ĠSunday": 3313,
      "Ġstories": 3314,
      "Ġ26": 3315,
      "ĠFacebook": 3316,
      "Ġdro": 3317,
      "ĠGener": 3318,
      "mercial": 3319,
      "Ġtowards": 3320,
      "imately": 3321,
      "No": 3322,
      "Ġlooked": 3323,
      "Ġqual": 3324,
      "iles": 3325,
      "zy": 3326,
      "Ġcondition": 3327,
      "Ġ+": 3328,
      "ĠPlease": 3329,
      "Ġsites": 3330,
      "ibly": 3331,
      "Ġhighly": 3332,
      "Ġphysical": 3333,
      "ĠStreet": 3334,
      "Ġsend": 3335,
      "ĠSeptember": 3336,
      "Ġconsist": 3337,
      "Ġconvers": 3338,
      "ĠNovember": 3339,
      "Ġresponse": 3340,
      "erved": 3341,
      "Ġ*": 3342,
      "Ġlocation": 3343,
      "ĠUK": 3344,
      "Ġproviding": 3345,
      "Ġinterview": 3346,
      "Ġcollection": 3347,
      "ursday": 3348,
      "Ġfeature": 3349,
      "ara": 3350,
      "field": 3351,
      "Ġprogress": 3352,
      "ednes": 3353,
      "uel": 3354,
      "Ġconcept": 3355,
      "Ġimplement": 3356,
      "Ġoffe": 3357,
      "ĠDirect": 3358,
      "Ġorganiz": 3359,
      "ospital": 3360,
      "Ġcode": 3361,
      "urt": 3362,
      "Ġaware": 3363,
      "arily": 3364,
      "Ġwrote": 3365,
      "They": 3366,
      "ari": 3367,
      "?âĢĿ": 3368,
      "kend": 3369,
      "Ġmobile": 3370,
      "Ġnearly": 3371,
      "Ġpartners": 3372,
      "Ġmaterials": 3373,
      "Ġturned": 3374,
      "35": 3375,
      "Ġmount": 3376,
      "Ġspent": 3377,
      "Ġreach": 3378,
      "Ġplant": 3379,
      "itely": 3380,
      "ĠFirst": 3381,
      "sych": 3382,
      "Ġthreat": 3383,
      "ĠAc": 3384,
      "bl": 3385,
      "col": 3386,
      "Ġfine": 3387,
      "Ġhttp": 3388,
      "rench": 3389,
      "Ġextreme": 3390,
      "Ġavoid": 3391,
      "Ġcapt": 3392,
      "Ġadvant": 3393,
      "ĠWind": 3394,
      "Ġmultiple": 3395,
      "Ġadult": 3396,
      "ĠKing": 3397,
      "Ġson": 3398,
      "unk": 3399,
      "agn": 3400,
      "apan": 3401,
      "Ġtried": 3402,
      "ength": 3403,
      "aches": 3404,
      "Ġhistor": 3405,
      "Ġwarm": 3406,
      "Ġeffort": 3407,
      "Ġinnov": 3408,
      "ĠAN": 3409,
      "Ġcelebr": 3410,
      "Ġindividuals": 3411,
      "Ġmis": 3412,
      "Ġlic": 3413,
      "ida": 3414,
      "Ġexerc": 3415,
      "Ġplaces": 3416,
      "Ġlack": 3417,
      "ĠLa": 3418,
      "add": 3419,
      "Ġlimited": 3420,
      "Ġcertainly": 3421,
      "ford": 3422,
      "ĠWeb": 3423,
      "ancy": 3424,
      "raft": 3425,
      "Ġdream": 3426,
      "Ġscore": 3427,
      "ednesday": 3428,
      "Ġtrip": 3429,
      "ĠUp": 3430,
      "Ġfather": 3431,
      "Ġpen": 3432,
      "Ġindepend": 3433,
      "Ġclub": 3434,
      "Ġneigh": 3435,
      "ĠAre": 3436,
      "ica": 3437,
      "ipping": 3438,
      "Ġ60": 3439,
      "EC": 3440,
      "ĠCoun": 3441,
      "Ġthous": 3442,
      "Ġcup": 3443,
      "ĠCons": 3444,
      "ran": 3445,
      "rences": 3446,
      "more": 3447,
      "Ġge": 3448,
      "Ġnote": 3449,
      "Ex": 3450,
      "):": 3451,
      "sequ": 3452,
      "Ġple": 3453,
      "Ġrestaur": 3454,
      "Ġconv": 3455,
      "Ġrace": 3456,
      "ĠEast": 3457,
      "Ġimag": 3458,
      "ittee": 3459,
      "mitted": 3460,
      "ĠDecember": 3461,
      "Ġgrowing": 3462,
      "antly": 3463,
      "ĠRepublic": 3464,
      "Ġten": 3465,
      "Ġded": 3466,
      "Ġfinally": 3467,
      "Ġevidence": 3468,
      "rig": 3469,
      "ĠIndia": 3470,
      "ET": 3471,
      "IL": 3472,
      "itiz": 3473,
      "Ġmat": 3474,
      "Ġfarm": 3475,
      "uted": 3476,
      "ĠPre": 3477,
      "opping": 3478,
      "aughter": 3479,
      "wor": 3480,
      "Ġhelps": 3481,
      "Ġoccur": 3482,
      "Ġregul": 3483,
      "Ġbusinesses": 3484,
      "Ġreve": 3485,
      "Ġsort": 3486,
      "Ġband": 3487,
      "ĠII": 3488,
      "ords": 3489,
      "uk": 3490,
      "uate": 3491,
      "Ġdemand": 3492,
      "Ġshot": 3493,
      "Ġbirth": 3494,
      "ĠDavid": 3495,
      "ĠMonday": 3496,
      "Ġregion": 3497,
      "zz": 3498,
      "Ġcollege": 3499,
      "EO": 3500,
      "ĠLondon": 3501,
      "Ġsubst": 3502,
      "Ġsen": 3503,
      "Ġeat": 3504,
      "Ġ27": 3505,
      "Ġcarry": 3506,
      "Ġemployees": 3507,
      "Ġtools": 3508,
      "ĠWashington": 3509,
      "Ġver": 3510,
      "iment": 3511,
      "olute": 3512,
      "ĠâĢ¦": 3513,
      "Ġwants": 3514,
      "Ġbeginning": 3515,
      "itchen": 3516,
      "ares": 3517,
      "Ġalone": 3518,
      "Ġspot": 3519,
      "Ġequipment": 3520,
      "Ġculture": 3521,
      "45": 3522,
      "âĢĿ.": 3523,
      "body": 3524,
      "ION": 3525,
      "vest": 3526,
      "ĠEvery": 3527,
      "Ġdistrib": 3528,
      "cul": 3529,
      "oday": 3530,
      "Ġdisease": 3531,
      "oming": 3532,
      "itable": 3533,
      "Ġfix": 3534,
      "Ġspirit": 3535,
      "aint": 3536,
      "Ġactivity": 3537,
      "Ġfloor": 3538,
      "Ġparticularly": 3539,
      "ĠChina": 3540,
      "Ġinterested": 3541,
      "ĠObama": 3542,
      "Ġaccom": 3543,
      "ĠCourt": 3544,
      "ĠWell": 3545,
      "Ġkn": 3546,
      "Ġtraditional": 3547,
      "ĠWhite": 3548,
      "Ġsuccessful": 3549,
      "Ġmaybe": 3550,
      "ying": 3551,
      "oms": 3552,
      "Ġfeeling": 3553,
      "Ġwhose": 3554,
      "ography": 3555,
      "ĠService": 3556,
      "Ġult": 3557,
      "izes": 3558,
      "Ġcomplex": 3559,
      "Ġcorrect": 3560,
      "Ġannounced": 3561,
      "mm": 3562,
      "Ġdifference": 3563,
      "Ġstage": 3564,
      "amb": 3565,
      "Ġrespond": 3566,
      "reed": 3567,
      "hest": 3568,
      "Ġwife": 3569,
      "Ġdeveloped": 3570,
      "Ġbra": 3571,
      "rows": 3572,
      "estern": 3573,
      "ibrary": 3574,
      "Pro": 3575,
      "Ġexpert": 3576,
      "Ġrelig": 3577,
      "ims": 3578,
      "ĠFree": 3579,
      "Ġ=": 3580,
      "arant": 3581,
      "undred": 3582,
      "Ġfear": 3583,
      "ĠMost": 3584,
      "Ġfeet": 3585,
      "ounds": 3586,
      "Ġsolution": 3587,
      "ĠTHE": 3588,
      "Ġfamilies": 3589,
      "ĠMor": 3590,
      "rast": 3591,
      "wide": 3592,
      "Ġgold": 3593,
      "Ġpurpose": 3594,
      "Ġtalking": 3595,
      "ĠOut": 3596,
      "Ġwait": 3597,
      "Ġfully": 3598,
      "het": 3599,
      "atever": 3600,
      "ags": 3601,
      "erry": 3602,
      "Ġcorpor": 3603,
      "Ġgoals": 3604,
      "Ġexactly": 3605,
      "Ġshoot": 3606,
      "Ġ2007": 3607,
      "omb": 3608,
      "Ġachieve": 3609,
      "ault": 3610,
      "Ġearlier": 3611,
      "Ġimages": 3612,
      "Ġhop": 3613,
      "ĠFebruary": 3614,
      "Ġwish": 3615,
      "Ġdire": 3616,
      "venue": 3617,
      "set": 3618,
      "Ġpaid": 3619,
      "Ġreports": 3620,
      "Ġaltern": 3621,
      "BC": 3622,
      "ĠIN": 3623,
      "Ġprevious": 3624,
      "Ġspend": 3625,
      "ĠEven": 3626,
      "Ġserious": 3627,
      "Ġremain": 3628,
      "ĠGroup": 3629,
      "Ġpromot": 3630,
      "ĠPM": 3631,
      "Ġopportunities": 3632,
      "ĠÂ£": 3633,
      "example": 3634,
      "Ġphotos": 3635,
      "Ġdoub": 3636,
      "PS": 3637,
      "ĠAir": 3638,
      "ronic": 3639,
      "ĠBusiness": 3640,
      "icate": 3641,
      "Ġeye": 3642,
      "Ġheat": 3643,
      "Ġassess": 3644,
      "Ġcert": 3645,
      "Ġmoving": 3646,
      "dom": 3647,
      "Ġtur": 3648,
      "duc": 3649,
      "Ġ29": 3650,
      "Ġcreating": 3651,
      "Ġproced": 3652,
      "Ġter": 3653,
      "Ġsleep": 3654,
      "ĠEar": 3655,
      "Ġimpress": 3656,
      "Ġdirector": 3657,
      "Ġmeaning": 3658,
      "Ġshop": 3659,
      "arden": 3660,
      "EL": 3661,
      "Ġinform": 3662,
      "bum": 3663,
      "Ġcateg": 3664,
      "ani": 3665,
      "ĠLaw": 3666,
      "ĠAssociation": 3667,
      "inger": 3668,
      "Ġseven": 3669,
      "Ġstrugg": 3670,
      "ager": 3671,
      "Ġacqu": 3672,
      "Ġprem": 3673,
      "down": 3674,
      "Ġnumbers": 3675,
      "Ġserve": 3676,
      "Ġdeliver": 3677,
      "Ġtick": 3678,
      "Ġfederal": 3679,
      "Ġdemon": 3680,
      "Ġbaby": 3681,
      "Ġappropri": 3682,
      "Ġpressure": 3683,
      "IG": 3684,
      "chan": 3685,
      "mark": 3686,
      "ruit": 3687,
      "Ġstraight": 3688,
      "Ġprices": 3689,
      "Ġmaintain": 3690,
      "Ġpicture": 3691,
      "Ġhous": 3692,
      "ils": 3693,
      "Ġanaly": 3694,
      "ĠJes": 3695,
      "Ġhealthy": 3696,
      "oly": 3697,
      "orage": 3698,
      "Ġund": 3699,
      "Ġtitle": 3700,
      "Ġexcellent": 3701,
      "lin": 3702,
      "Ġtrade": 3703,
      "ĠJapan": 3704,
      "ĠCanada": 3705,
      "Ġallowed": 3706,
      "Ġopin": 3707,
      "Ġliter": 3708,
      "Ġeight": 3709,
      "ĠTechn": 3710,
      "She": 3711,
      "que": 3712,
      "Ġscient": 3713,
      "Ġvoice": 3714,
      "imin": 3715,
      "ĠIndian": 3716,
      "aling": 3717,
      "Ġcouldn": 3718,
      "mas": 3719,
      "Ġroll": 3720,
      "Ġincreasing": 3721,
      "ĠJack": 3722,
      "ĠAM": 3723,
      "ĠCollege": 3724,
      "Ġdevices": 3725,
      "Ġblue": 3726,
      "vis": 3727,
      "Ġunderstanding": 3728,
      "Ġrent": 3729,
      "Ġchanged": 3730,
      "ĠInternet": 3731,
      "Ġbenefit": 3732,
      "Ġscience": 3733,
      "Ġgrand": 3734,
      "Ġstress": 3735,
      "Ġextend": 3736,
      "ĠGreat": 3737,
      "Ġweekend": 3738,
      "Ġincreased": 3739,
      "Ġwel": 3740,
      "Ġshown": 3741,
      "Ġnormal": 3742,
      "Ġuses": 3743,
      "Ġrules": 3744,
      "Ġconsult": 3745,
      "Ġsmart": 3746,
      "Ġstatement": 3747,
      "Ġfem": 3748,
      "Ġsolutions": 3749,
      "Ġrequirements": 3750,
      "Here": 3751,
      "Ġappl": 3752,
      "order": 3753,
      "Ġinstru": 3754,
      "Ġfrequ": 3755,
      "Ġforce": 3756,
      "change": 3757,
      "Ġfat": 3758,
      "Ġplanning": 3759,
      "isf": 3760,
      "ls": 3761,
      "ĠGreen": 3762,
      "ashion": 3763,
      "Ġcapital": 3764,
      "Ġimmediately": 3765,
      "Ġglass": 3766,
      "Ġmilitary": 3767,
      "Un": 3768,
      "Ġoverall": 3769,
      "By": 3770,
      "Ġfans": 3771,
      "Ġpet": 3772,
      "ously": 3773,
      "house": 3774,
      "Ġbillion": 3775,
      "leg": 3776,
      "aled": 3777,
      "olf": 3778,
      "Ġteams": 3779,
      "Ġpattern": 3780,
      "ĠAlso": 3781,
      "cks": 3782,
      "ĠPaul": 3783,
      "ĠProgram": 3784,
      "Ġinvestment": 3785,
      "Ġtemper": 3786,
      "27": 3787,
      "AD": 3788,
      "Ġalthough": 3789,
      "Ġden": 3790,
      "inner": 3791,
      "rial": 3792,
      "amm": 3793,
      "Ġemot": 3794,
      "Ġmiddle": 3795,
      "cause": 3796,
      "Ġcharge": 3797,
      "Ġschools": 3798,
      "De": 3799,
      "Is": 3800,
      "Ġbeyond": 3801,
      "Ġperhaps": 3802,
      "ĠProf": 3803,
      "nded": 3804,
      "ĠGovern": 3805,
      "Ġpoor": 3806,
      "Ġapart": 3807,
      "Ġcold": 3808,
      "Ġsociety": 3809,
      "ĠTrans": 3810,
      "anch": 3811,
      "arc": 3812,
      "Ġowners": 3813,
      "Ġmiles": 3814,
      "Ġdating": 3815,
      "Ġcomments": 3816,
      "Ġcoffe": 3817,
      "iant": 3818,
      "Ġdoll": 3819,
      "ĠTex": 3820,
      "Ġ2018": 3821,
      "mp": 3822,
      "Ġtrou": 3823,
      "Ġble": 3824,
      "Ġmeasure": 3825,
      "ĠMet": 3826,
      "Ġquarter": 3827,
      "iling": 3828,
      "Ġlik": 3829,
      "Ġconc": 3830,
      "Ġrates": 3831,
      "ĠOther": 3832,
      "Ġdefinitely": 3833,
      "Ġcontain": 3834,
      "Ġreduce": 3835,
      "Ġaward": 3836,
      "Ġdegree": 3837,
      "Ġreasons": 3838,
      "ĠPal": 3839,
      "place": 3840,
      "Ġguy": 3841,
      "Ġresponsible": 3842,
      "ĠTuesday": 3843,
      "etic": 3844,
      "Ġprefer": 3845,
      "Ġapplications": 3846,
      "Ġhappened": 3847,
      "Ġgone": 3848,
      "ategy": 3849,
      "Ġstudies": 3850,
      "Ġdry": 3851,
      "Ġnamed": 3852,
      "Ġhundred": 3853,
      "ĠRuss": 3854,
      "Ġchurch": 3855,
      "olic": 3856,
      "iance": 3857,
      "well": 3858,
      "ampions": 3859,
      "Ġoffered": 3860,
      "Now": 3861,
      "New": 3862,
      "ago": 3863,
      "Ġcells": 3864,
      "26": 3865,
      "Ġcirc": 3866,
      "OL": 3867,
      "reci": 3868,
      "ancing": 3869,
      "lying": 3870,
      "pm": 3871,
      "Ġfra": 3872,
      "Ġcancer": 3873,
      "ban": 3874,
      "Ġcru": 3875,
      "Ġadvert": 3876,
      "Ġaspect": 3877,
      "Ġjobs": 3878,
      "Ġwat": 3879,
      "Ġclin": 3880,
      "Ġactive": 3881,
      "Ġstrateg": 3882,
      "force": 3883,
      "Ġcoffee": 3884,
      "iable": 3885,
      "istics": 3886,
      "ĠSystem": 3887,
      "rief": 3888,
      "ĠCong": 3889,
      "ube": 3890,
      "Ġ197": 3891,
      "Ġload": 3892,
      "Ġtruly": 3893,
      "care": 3894,
      "asc": 3895,
      "Ġcandid": 3896,
      "Ġbill": 3897,
      "ĠFe": 3898,
      "Ġdamage": 3899,
      "28": 3900,
      "gen": 3901,
      "ĠLet": 3902,
      "Ġwww": 3903,
      "ĠThursday": 3904,
      "Ġpatient": 3905,
      "Ġmovement": 3906,
      "Ġhelped": 3907,
      "rael": 3908,
      "Ġcommercial": 3909,
      "ST": 3910,
      "bed": 3911,
      "Ġwild": 3912,
      "Ġslight": 3913,
      "Ġmachine": 3914,
      "Ġabsolute": 3915,
      "Ġproduce": 3916,
      "Ġfollowed": 3917,
      "ĠAss": 3918,
      "Ġlargest": 3919,
      "see": 3920,
      "ĠHome": 3921,
      "29": 3922,
      "Ġgreater": 3923,
      "Ġchallenge": 3924,
      "Ġpages": 3925,
      "Ġdoctor": 3926,
      "ĠEuropean": 3927,
      "IV": 3928,
      "Ġadvice": 3929,
      "isl": 3930,
      "ĠInter": 3931,
      "Ġbudget": 3932,
      "ĠChristian": 3933,
      "Ġmax": 3934,
      "udd": 3935,
      "IP": 3936,
      "ĠRom": 3937,
      "Ġpopulation": 3938,
      "ĠResearch": 3939,
      "ĠRock": 3940,
      "ĠHall": 3941,
      "ecutive": 3942,
      "While": 3943,
      "Ġannual": 3944,
      "edding": 3945,
      "Ġsust": 3946,
      "100": 3947,
      "itude": 3948,
      "Ġloved": 3949,
      "ĠReview": 3950,
      "Ġassociated": 3951,
      "ĠCouncil": 3952,
      "Ġspread": 3953,
      "Ġsurv": 3954,
      "Ġmoved": 3955,
      "osing": 3956,
      "Ġconstruction": 3957,
      "Ġfaith": 3958,
      "ĠBoard": 3959,
      "Ġbreat": 3960,
      "Ġcontinued": 3961,
      "Ġbasis": 3962,
      "ulf": 3963,
      "Ġcry": 3964,
      "Ġdang": 3965,
      "asy": 3966,
      "ĠBook": 3967,
      "ĠDel": 3968,
      "ĠFrench": 3969,
      "Ġenh": 3970,
      "Ġreflect": 3971,
      "ĠFlor": 3972,
      "bon": 3973,
      "Ġnotice": 3974,
      "Ġ2006": 3975,
      "Ġsale": 3976,
      "Ġeconomy": 3977,
      "ĠMichael": 3978,
      "Ġprofession": 3979,
      "Ġborn": 3980,
      "Ġbrain": 3981,
      "coming": 3982,
      "Ġclient": 3983,
      "Ġletter": 3984,
      "Ġsurround": 3985,
      "ĠServices": 3986,
      "Ġahead": 3987,
      "amic": 3988,
      "Ġalbum": 3989,
      "akers": 3990,
      "Ġpowerful": 3991,
      "Ġâ": 3992,
      "ĠMod": 3993,
      "Ġtruth": 3994,
      "Ġhus": 3995,
      "iber": 3996,
      "Ġincome": 3997,
      "ado": 3998,
      "Ġcompared": 3999,
      "Ġnut": 4000,
      "ĠBra": 4001,
      "Com": 4002,
      "ĠGold": 4003,
      "orrow": 4004,
      "Ġoffering": 4005,
      "Ġjoin": 4006,
      "Ġgas": 4007,
      "ĠAnt": 4008,
      "Ġdouble": 4009,
      "Ġmer": 4010,
      "Ġbrother": 4011,
      "ĠDist": 4012,
      "Ġefforts": 4013,
      "ĠWednesday": 4014,
      "ech": 4015,
      "Ġaren": 4016,
      "ĠYear": 4017,
      "Ġguys": 4018,
      "Ġgirls": 4019,
      "Ġadvantage": 4020,
      "ĠSuper": 4021,
      "Ġ2019": 4022,
      "Ġlots": 4023,
      "Ġing": 4024,
      "Ġcentury": 4025,
      "Ġfinished": 4026,
      "**": 4027,
      "Ġoccas": 4028,
      "Ġdelivery": 4029,
      "Ġlines": 4030,
      "Ġopening": 4031,
      "Ġsurface": 4032,
      "33": 4033,
      "ico": 4034,
      "ĠAustralia": 4035,
      "ĠMicro": 4036,
      "ĠJames": 4037,
      "Ġvehicle": 4038,
      "Ġeval": 4039,
      "Ġpartner": 4040,
      "iny": 4041,
      "Ġorigin": 4042,
      "icks": 4043,
      "mat": 4044,
      "ero": 4045,
      "Ġserved": 4046,
      "ĠRich": 4047,
      "ĠCle": 4048,
      "Ġstar": 4049,
      "Ġpow": 4050,
      "ĠSl": 4051,
      "Ġguide": 4052,
      "ĠTexas": 4053,
      "ĠPort": 4054,
      "pa": 4055,
      "ĠOver": 4056,
      "Ġessential": 4057,
      "Ġbeg": 4058,
      "Ġleader": 4059,
      "ĠBill": 4060,
      "Ġkept": 4061,
      "TH": 4062,
      "Ġappreci": 4063,
      "apter": 4064,
      "Ġcompon": 4065,
      "Ġbottom": 4066,
      "ustr": 4067,
      "Ġfinish": 4068,
      "Don": 4069,
      "Ġcitiz": 4070,
      "istry": 4071,
      "soft": 4072,
      "90": 4073,
      "ses": 4074,
      "Ġsweet": 4075,
      "unte": 4076,
      "ĠAny": 4077,
      "term": 4078,
      "ĠJesus": 4079,
      "ston": 4080,
      "ĠBel": 4081,
      "ervation": 4082,
      "Ġgar": 4083,
      "These": 4084,
      "Ġeasier": 4085,
      "Ġcash": 4086,
      "icip": 4087,
      "Ġprot": 4088,
      "icine": 4089,
      "Ġpeace": 4090,
      "Ġanti": 4091,
      "ĠGet": 4092,
      "ĠOffice": 4093,
      "Ġsuff": 4094,
      "text": 4095,
      "Ġiniti": 4096,
      "Ġstrength": 4097,
      "Ġbasic": 4098,
      "men": 4099,
      "OW": 4100,
      "Ġcalls": 4101,
      "Ġtransport": 4102,
      "Ġsteps": 4103,
      "Ġwonderful": 4104,
      "Ġ2020": 4105,
      "ken": 4106,
      "Ġpros": 4107,
      "Ġchem": 4108,
      "ĠPlay": 4109,
      "ĠAnge": 4110,
      "know": 4111,
      "ĠIS": 4112,
      "atively": 4113,
      "rapy": 4114,
      "Ġfigure": 4115,
      "Ġwouldn": 4116,
      "Ġreb": 4117,
      "Ġsetting": 4118,
      "Ġexpand": 4119,
      "Ġinternet": 4120,
      "ker": 4121,
      "ĠTy": 4122,
      "odes": 4123,
      "Ġsports": 4124,
      "Ġpassed": 4125,
      "ĠIsrael": 4126,
      "ooth": 4127,
      "rey": 4128,
      "ĠMany": 4129,
      "ĠBen": 4130,
      "ĠRec": 4131,
      "ĠOF": 4132,
      "Ġarr": 4133,
      "useum": 4134,
      "ĠMac": 4135,
      "Ġfab": 4136,
      "using": 4137,
      "igned": 4138,
      "itect": 4139,
      "hips": 4140,
      "Ġregarding": 4141,
      "Ġtend": 4142,
      "Ġdisapp": 4143,
      "Ġconnection": 4144,
      "itar": 4145,
      "Ġtrain": 4146,
      "Ġaccur": 4147,
      "Ġorganizations": 4148,
      "Ġweather": 4149,
      "Ġwear": 4150,
      "ĠEv": 4151,
      "ĠAnn": 4152,
      "Ġobv": 4153,
      "ĠBritish": 4154,
      "Ġdied": 4155,
      "Ġconference": 4156,
      "Ġadjust": 4157,
      "ĠWhy": 4158,
      "ifying": 4159,
      "Ġtoward": 4160,
      "Ġ@": 4161,
      "Ġir": 4162,
      "anging": 4163,
      "Ġprotection": 4164,
      "ĠEduc": 4165,
      "ourney": 4166,
      "Ġsupply": 4167,
      "with": 4168,
      "Ġkitchen": 4169,
      "Ġruns": 4170,
      "Ġgenerally": 4171,
      "Ġphoto": 4172,
      "Ġmaster": 4173,
      "ĠGood": 4174,
      "ĠGeneral": 4175,
      "DA": 4176,
      "iced": 4177,
      "Ġclot": 4178,
      "ĠMiss": 4179,
      "Ġreplace": 4180,
      "Ġworkers": 4181,
      "Ġesc": 4182,
      "Ġsatisf": 4183,
      "Ġcivil": 4184,
      "ipped": 4185,
      "Ġhelping": 4186,
      "Ġattract": 4187,
      "ĠChristmas": 4188,
      "Ġcast": 4189,
      "ĠRiver": 4190,
      "Ġstructure": 4191,
      "Ġrepe": 4192,
      "ĠPC": 4193,
      "Ġmeant": 4194,
      "Ġexisting": 4195,
      "Ġlearned": 4196,
      "ties": 4197,
      "Ġguarant": 4198,
      "ĠBest": 4199,
      "Ġseemed": 4200,
      "ĠClub": 4201,
      "Ġreality": 4202,
      "Ġestablished": 4203,
      "ĠFound": 4204,
      "Ġseeing": 4205,
      "ĠDevelop": 4206,
      "Ġgun": 4207,
      "aming": 4208,
      "Ġsecret": 4209,
      "ĠSpr": 4210,
      "imal": 4211,
      "Ġcharacters": 4212,
      "ĠMarket": 4213,
      "ores": 4214,
      "za": 4215,
      "Ġstrategy": 4216,
      "vere": 4217,
      "Ġcontinu": 4218,
      "ĠEngland": 4219,
      "Please": 4220,
      "ĠMart": 4221,
      "uman": 4222,
      "ologies": 4223,
      "Ġlength": 4224,
      "ĠIsland": 4225,
      "Ġgift": 4226,
      "rupt": 4227,
      "Ġpictures": 4228,
      "Ġhighest": 4229,
      "Ġfan": 4230,
      "Ġargu": 4231,
      "Ġappropriate": 4232,
      "ĠSun": 4233,
      "ios": 4234,
      "Ġbackground": 4235,
      "pective": 4236,
      "Ġstatus": 4237,
      "opped": 4238,
      "azine": 4239,
      "ij": 4240,
      "Not": 4241,
      "ĠRoad": 4242,
      "Ġharm": 4243,
      "Ġstream": 4244,
      "Ġcamera": 4245,
      "friend": 4246,
      "Ġmission": 4247,
      "ĠBig": 4248,
      "Se": 4249,
      "Ġlock": 4250,
      "rian": 4251,
      "ocal": 4252,
      "oves": 4253,
      "Ġhaven": 4254,
      "Ġ80": 4255,
      "Ġhomes": 4256,
      "hens": 4257,
      "Ġadop": 4258,
      "Ġcritical": 4259,
      "Ġhusband": 4260,
      "Ġpieces": 4261,
      "ĠRet": 4262,
      "Ġcollabor": 4263,
      "Ġcompleted": 4264,
      "Ġclaims": 4265,
      "CH": 4266,
      "Ġmechan": 4267,
      "Ġreviews": 4268,
      "Ġincred": 4269,
      "Ġnove": 4270,
      "eds": 4271,
      "Ġlarger": 4272,
      "ĠWork": 4273,
      "Ġplus": 4274,
      "Ġcreative": 4275,
      "lim": 4276,
      "ĠAv": 4277,
      "Ġaudience": 4278,
      "Ġrich": 4279,
      "Ġappoint": 4280,
      "Ġmonitor": 4281,
      "IM": 4282,
      "Ġfant": 4283,
      "umn": 4284,
      "Ġwine": 4285,
      "Ġvirt": 4286,
      "Some": 4287,
      "ĠSam": 4288,
      "ady": 4289,
      "Ġvill": 4290,
      "ĠPublic": 4291,
      "oving": 4292,
      "sey": 4293,
      "?\"": 4294,
      "Ġton": 4295,
      "Ġmist": 4296,
      "Ġhom": 4297,
      "iller": 4298,
      "Ġknows": 4299,
      "gn": 4300,
      "ona": 4301,
      "ĠWindows": 4302,
      "ĠPress": 4303,
      "porary": 4304,
      "la": 4305,
      "ĠSee": 4306,
      "Ġproduced": 4307,
      "Ġhotel": 4308,
      "Con": 4309,
      "Ġrequires": 4310,
      "ĠCompany": 4311,
      "65": 4312,
      "Ġentertain": 4313,
      "Â®": 4314,
      "ĠCD": 4315,
      "iled": 4316,
      "ĠFlorida": 4317,
      "Ġtransfer": 4318,
      "Ġdriving": 4319,
      "ĠTime": 4320,
      "Ġrefer": 4321,
      "ports": 4322,
      "Ġolder": 4323,
      "ĠRober": 4324,
      "eria": 4325,
      "ĠMem": 4326,
      "Ġactual": 4327,
      "Do": 4328,
      "Ġstorage": 4329,
      "ĠMag": 4330,
      "Ġthank": 4331,
      "Ġfiles": 4332,
      "Ġwhatever": 4333,
      "ĠSur": 4334,
      "Ġbiggest": 4335,
      "asure": 4336,
      "Ġnames": 4337,
      "raw": 4338,
      "ĠLord": 4339,
      "ym": 4340,
      "Ġpsych": 4341,
      "ĠPri": 4342,
      "Ġbeat": 4343,
      "acity": 4344,
      "Ġonto": 4345,
      "rowd": 4346,
      "unately": 4347,
      "Ġrare": 4348,
      "Ġextremely": 4349,
      "dule": 4350,
      "ĠPhil": 4351,
      "rees": 4352,
      "Ġheavy": 4353,
      "ĠOnce": 4354,
      "Ġafford": 4355,
      "last": 4356,
      "enses": 4357,
      "TS": 4358,
      "Ġremind": 4359,
      "OV": 4360,
      "Ġcolle": 4361,
      "Ġfactors": 4362,
      "ĠThom": 4363,
      "Ġremains": 4364,
      "Ġ2005": 4365,
      "ĠTwitter": 4366,
      "inese": 4367,
      "ooper": 4368,
      "NA": 4369,
      "âĢĿ,": 4370,
      "Ġdemonstr": 4371,
      "ĠHot": 4372,
      "gal": 4373,
      "ĠHist": 4374,
      "works": 4375,
      "Ġtherefore": 4376,
      "Ġdaughter": 4377,
      "ĠBay": 4378,
      "Ġplaced": 4379,
      "ander": 4380,
      "amin": 4381,
      "Ġfinding": 4382,
      "Ġfish": 4383,
      "Ġcommit": 4384,
      "ĠChurch": 4385,
      "Ġexperienced": 4386,
      "ula": 4387,
      "ĠCr": 4388,
      "iers": 4389,
      "ĠRem": 4390,
      "Ġexperiences": 4391,
      "Ġframe": 4392,
      "orial": 4393,
      "oos": 4394,
      "Ġdeveloping": 4395,
      "AA": 4396,
      "aven": 4397,
      "âĢĺ": 4398,
      "Ġstreet": 4399,
      "entially": 4400,
      "Ġbehavior": 4401,
      "Ġdrop": 4402,
      "berg": 4403,
      "Ar": 4404,
      "ĠMary": 4405,
      "Ġestablish": 4406,
      "Ġparties": 4407,
      "Ġstandards": 4408,
      "ĠPeople": 4409,
      "icon": 4410,
      "itors": 4411,
      "500": 4412,
      "Ġmill": 4413,
      "ĠSol": 4414,
      "Ġscen": 4415,
      "azon": 4416,
      "UR": 4417,
      "box": 4418,
      "Ġspecies": 4419,
      "itness": 4420,
      "ucky": 4421,
      "Ġwindow": 4422,
      "ss": 4423,
      "!!!!": 4424,
      "roy": 4425,
      "ĠOh": 4426,
      "Ġ90": 4427,
      ");": 4428,
      "Ġcaused": 4429,
      "state": 4430,
      "ĠLife": 4431,
      "Ġ31": 4432,
      "Ġforms": 4433,
      "Ġtesting": 4434,
      "ĠAP": 4435,
      "rab": 4436,
      "Ġbath": 4437,
      "Ġchallenges": 4438,
      "vin": 4439,
      "Ġcovered": 4440,
      "Ġguess": 4441,
      "Ġprimary": 4442,
      "atically": 4443,
      "ĠBank": 4444,
      "ae": 4445,
      "ĠCam": 4446,
      "Ġmodels": 4447,
      "Ġvision": 4448,
      "47": 4449,
      "encies": 4450,
      "oices": 4451,
      "Ġimpl": 4452,
      "Ġresist": 4453,
      "Ġhappens": 4454,
      "EM": 4455,
      "Ġfurn": 4456,
      "ĠTor": 4457,
      "Ġsym": 4458,
      "ĠOpen": 4459,
      "Ġbecomes": 4460,
      "ĠDesign": 4461,
      "Ġthousands": 4462,
      "ĠST": 4463,
      "ĠWhe": 4464,
      "Ġrob": 4465,
      "Ġstick": 4466,
      "ĠInstitute": 4467,
      "fit": 4468,
      "ĠCongress": 4469,
      "Ġthus": 4470,
      "Ġmajority": 4471,
      "Ġexercise": 4472,
      "Ġjump": 4473,
      "Ġshared": 4474,
      "gency": 4475,
      "Ġlimit": 4476,
      "ĠCamp": 4477,
      "iques": 4478,
      "Ġbalance": 4479,
      "anta": 4480,
      "Ġevening": 4481,
      "Ġdetermine": 4482,
      "Ġaim": 4483,
      "atab": 4484,
      "Ġlinks": 4485,
      "inn": 4486,
      "Ġmanager": 4487,
      "Ġhospital": 4488,
      "semb": 4489,
      "ĠClass": 4490,
      "Ġflav": 4491,
      "ipp": 4492,
      "Ġvir": 4493,
      "Ġmemory": 4494,
      "ĠSub": 4495,
      "standing": 4496,
      "Ġearth": 4497,
      "ĠApple": 4498,
      "Ġexhib": 4499,
      "Ġtrail": 4500,
      "Ġuseful": 4501,
      "Ġcentral": 4502,
      "look": 4503,
      "lig": 4504,
      "Ġkeeping": 4505,
      "eed": 4506,
      "Ġpresented": 4507,
      "Ġdescribed": 4508,
      "uled": 4509,
      "Ġ35": 4510,
      "osure": 4511,
      "nect": 4512,
      "levant": 4513,
      "Ġcommunities": 4514,
      "ĠSk": 4515,
      "Ġthanks": 4516,
      "phone": 4517,
      "ĠDemocr": 4518,
      "Ġpolic": 4519,
      "Ġeth": 4520,
      "ĠHel": 4521,
      "estival": 4522,
      "ĠEach": 4523,
      "Ġgain": 4524,
      "Ġsecure": 4525,
      "ĠPlan": 4526,
      "Ġelements": 4527,
      "ĠCare": 4528,
      "\",": 4529,
      "iation": 4530,
      "edy": 4531,
      "osis": 4532,
      "oyal": 4533,
      "Ġshowed": 4534,
      "Ġmanufacture": 4535,
      "Ġdirection": 4536,
      "Ġacadem": 4537,
      "annel": 4538,
      "Ġtips": 4539,
      "pan": 4540,
      "Ġcontinues": 4541,
      "Ġepis": 4542,
      "Ġunit": 4543,
      "ĠMount": 4544,
      "Ġposted": 4545,
      "Ġexclus": 4546,
      "cles": 4547,
      "37": 4548,
      "gl": 4549,
      "Ġmulti": 4550,
      "ĠBecause": 4551,
      "cript": 4552,
      "CC": 4553,
      "Ġscene": 4554,
      "Ab": 4555,
      "free": 4556,
      "Ġlands": 4557,
      "Ġrecords": 4558,
      "Ġmethods": 4559,
      "Pl": 4560,
      "inct": 4561,
      "ulated": 4562,
      "Ġradio": 4563,
      "Ġjournal": 4564,
      "Ġwaiting": 4565,
      "ĠScience": 4566,
      "Ġsenior": 4567,
      "gers": 4568,
      "oto": 4569,
      "ellow": 4570,
      "Ġideal": 4571,
      "Ġcards": 4572,
      "ĠBrown": 4573,
      "Ġearn": 4574,
      "isco": 4575,
      "ented": 4576,
      "Ġindependent": 4577,
      "Ġsem": 4578,
      "Ġwatching": 4579,
      "Ġdecide": 4580,
      "Ġcomfortable": 4581,
      "Ġtrial": 4582,
      "Ġmentioned": 4583,
      "ĠUse": 4584,
      "Ġsolid": 4585,
      "Ġtim": 4586,
      "Ġguid": 4587,
      "actions": 4588,
      "ror": 4589,
      "Ġviews": 4590,
      "ĠManagement": 4591,
      "but": 4592,
      "ĠCommission": 4593,
      "Ġforget": 4594,
      "enture": 4595,
      "olly": 4596,
      "Ġcompetition": 4597,
      "Ġlabor": 4598,
      "ĠMex": 4599,
      "Ġbow": 4600,
      "ĠSince": 4601,
      "riage": 4602,
      "Ġvalues": 4603,
      "ĠUSA": 4604,
      "Ġvote": 4605,
      "ota": 4606,
      "ĠRob": 4607,
      "ĠLou": 4608,
      "OP": 4609,
      "Ġkid": 4610,
      "Ġowner": 4611,
      "Ġgrant": 4612,
      "Ġpayment": 4613,
      "overy": 4614,
      "Ġrank": 4615,
      "acing": 4616,
      "Ġ70": 4617,
      "miss": 4618,
      "Ġrule": 4619,
      "Ġleaving": 4620,
      "Ġplenty": 4621,
      "Ġlaws": 4622,
      "Ġclearly": 4623,
      "mail": 4624,
      "Ġtechnical": 4625,
      "Ġofficials": 4626,
      "Cont": 4627,
      "gment": 4628,
      "estic": 4629,
      "night": 4630,
      "ĠIT": 4631,
      "amily": 4632,
      "Ġlegisl": 4633,
      "Ġappears": 4634,
      "roud": 4635,
      "icago": 4636,
      "Ġended": 4637,
      "Ġprec": 4638,
      "reak": 4639,
      "Ġmail": 4640,
      "Ġjourney": 4641,
      "Ġbul": 4642,
      "Ġwhom": 4643,
      "ĠSmith": 4644,
      "omin": 4645,
      "From": 4646,
      "Ġcatch": 4647,
      "Ġfol": 4648,
      "Ġsnow": 4649,
      "Ġfashion": 4650,
      "Ġsustain": 4651,
      "Ġadvance": 4652,
      "Ġelectric": 4653,
      "ĠGeorge": 4654,
      "95": 4655,
      "Ġtraffic": 4656,
      "Ġrap": 4657,
      "Ġpray": 4658,
      "cient": 4659,
      "Ġcrowd": 4660,
      "Ġhar": 4661,
      "hy": 4662,
      "ĠTom": 4663,
      "44": 4664,
      "Ġwinter": 4665,
      "Ġotherwise": 4666,
      "Ġsession": 4667,
      "iture": 4668,
      "Ġstation": 4669,
      "ette": 4670,
      "osh": 4671,
      "ordin": 4672,
      "ĠCarol": 4673,
      "Ġoperations": 4674,
      "Ġutil": 4675,
      "Ġbird": 4676,
      "apers": 4677,
      "Ġteaching": 4678,
      "ishes": 4679,
      "asp": 4680,
      "Ġforeign": 4681,
      "Ġpaint": 4682,
      "Ġexcited": 4683,
      "bing": 4684,
      "Ġgraph": 4685,
      "Ġmanage": 4686,
      "spe": 4687,
      "Ġcris": 4688,
      "Ġcounter": 4689,
      "Ġfootball": 4690,
      "fast": 4691,
      "yer": 4692,
      "Ġselection": 4693,
      "Ġopened": 4694,
      "antic": 4695,
      "Ġmatt": 4696,
      "ĠPet": 4697,
      "Ġspending": 4698,
      "More": 4699,
      "Post": 4700,
      "Ġice": 4701,
      "Ġbag": 4702,
      "Ġdep": 4703,
      "ĠStar": 4704,
      "Ġlaunch": 4705,
      "ĠDirector": 4706,
      "Ġopinion": 4707,
      "Ġshowing": 4708,
      "38": 4709,
      "Ġdespite": 4710,
      "no": 4711,
      "water": 4712,
      "Ġcontains": 4713,
      "Ġtransl": 4714,
      "Ġbatter": 4715,
      "Ġretail": 4716,
      "Ġdepartment": 4717,
      "Ġbrief": 4718,
      "ternal": 4719,
      "ĠDec": 4720,
      "ĠInformation": 4721,
      "Ġcoach": 4722,
      "ĠChinese": 4723,
      "Ġlose": 4724,
      "Ġadding": 4725,
      "Ġ196": 4726,
      "uries": 4727,
      "Ġsand": 4728,
      "ads": 4729,
      "Ġlisted": 4730,
      "Ġvolunte": 4731,
      "ĠEducation": 4732,
      "Ġclasses": 4733,
      "lor": 4734,
      "ĠAmericans": 4735,
      "Ġinjury": 4736,
      "reek": 4737,
      "ĠStr": 4738,
      "Ġdiscover": 4739,
      "Ġcore": 4740,
      "Ġstarts": 4741,
      "Ġprepared": 4742,
      "ĠAfrica": 4743,
      "inc": 4744,
      "ĠJo": 4745,
      "ĠVir": 4746,
      "Ġign": 4747,
      "osition": 4748,
      "Ġdiscussion": 4749,
      "Ġer": 4750,
      "alls": 4751,
      "Ġleadership": 4752,
      "Ġanimals": 4753,
      "Ġkilled": 4754,
      "Ġfill": 4755,
      "Ġrat": 4756,
      "Ġbecoming": 4757,
      "Ġfamous": 4758,
      "Ġpractices": 4759,
      "ĠCap": 4760,
      "Ġsugar": 4761,
      "MS": 4762,
      "ugg": 4763,
      "ĠMat": 4764,
      "Ġpool": 4765,
      "Ġleaves": 4766,
      "ctors": 4767,
      "ĠSa": 4768,
      "Ġagency": 4769,
      "Ġcitizens": 4770,
      "Ġactions": 4771,
      "point": 4772,
      "Ġsources": 4773,
      "Ġboo": 4774,
      "Ġnor": 4775,
      "ĠMain": 4776,
      "____": 4777,
      "ipe": 4778,
      "Ġsch": 4779,
      "ucle": 4780,
      "Ġestim": 4781,
      "48": 4782,
      "ĠFore": 4783,
      "75": 4784,
      "hab": 4785,
      "Ġmort": 4786,
      "Ġcontext": 4787,
      "RA": 4788,
      "ĠDet": 4789,
      "Ġcraft": 4790,
      "ĠAlex": 4791,
      "Ġcommunication": 4792,
      "ĠAlthough": 4793,
      "Why": 4794,
      "Ġpassion": 4795,
      "Ġraised": 4796,
      "IA": 4797,
      "Ġapprox": 4798,
      "Ġupdate": 4799,
      "Ġenvironmental": 4800,
      "Ġsequ": 4801,
      "which": 4802,
      "iliar": 4803,
      "Ġsympt": 4804,
      "Ġshopping": 4805,
      "ception": 4806,
      "esterday": 4807,
      "Ġbutton": 4808,
      "iency": 4809,
      "do": 4810,
      "ĠPower": 4811,
      "ĠRel": 4812,
      "ĠLake": 4813,
      "Ġfunds": 4814,
      "Ġdedicated": 4815,
      "Ġship": 4816,
      "ĠUnder": 4817,
      "Bl": 4818,
      "PA": 4819,
      "rad": 4820,
      "ste": 4821,
      "Ġresidents": 4822,
      "cont": 4823,
      "ĠSal": 4824,
      "Ġclosed": 4825,
      "Ġcorner": 4826,
      "Me": 4827,
      "Ġpair": 4828,
      "roid": 4829,
      "orney": 4830,
      "Ad": 4831,
      "Ġap": 4832,
      "Ġspring": 4833,
      "Ġwilling": 4834,
      "tion": 4835,
      "Ġserver": 4836,
      "ĠMake": 4837,
      "Ġmostly": 4838,
      "Ġartist": 4839,
      "abilities": 4840,
      "ront": 4841,
      "Ġconven": 4842,
      "Ġrelax": 4843,
      "Ġ2000": 4844,
      "Ġdriver": 4845,
      "Ġremove": 4846,
      "Ġhonest": 4847,
      "Ġschedule": 4848,
      "pet": 4849,
      "Ġmur": 4850,
      "Ġingred": 4851,
      "Your": 4852,
      "Ġ195": 4853,
      "Ġtask": 4854,
      "Ġflex": 4855,
      "Ġcoverage": 4856,
      "going": 4857,
      "CT": 4858,
      "fin": 4859,
      "Ġbuying": 4860,
      "ĠOnline": 4861,
      "known": 4862,
      "tained": 4863,
      "Ġthrow": 4864,
      "ĠSum": 4865,
      "Ġpolicies": 4866,
      "ĠTop": 4867,
      "Ġnumerous": 4868,
      "ĠCommittee": 4869,
      "ĠBer": 4870,
      "!\"": 4871,
      "esome": 4872,
      "Ġegg": 4873,
      "anda": 4874,
      "May": 4875,
      "Ġhearing": 4876,
      "Ġ2004": 4877,
      "Ġspect": 4878,
      "Ġgeneration": 4879,
      "Ġslightly": 4880,
      "Ġbattle": 4881,
      "ĠMal": 4882,
      "Ġpresence": 4883,
      "how": 4884,
      "Ġsexual": 4885,
      "Ġpal": 4886,
      "BS": 4887,
      "pond": 4888,
      "Ġnotes": 4889,
      "Ġbought": 4890,
      "outhern": 4891,
      "ĠTur": 4892,
      "Ġadministration": 4893,
      "36": 4894,
      "itz": 4895,
      "olate": 4896,
      "Ġwelcome": 4897,
      "32": 4898,
      "Ġincor": 4899,
      "Ġleads": 4900,
      "unction": 4901,
      "lands": 4902,
      "ĠColor": 4903,
      "ĠWater": 4904,
      "Ġsty": 4905,
      "Ġefficient": 4906,
      "Ġindic": 4907,
      "Ġsounds": 4908,
      "ĠMil": 4909,
      "Ġbright": 4910,
      "ĠTimes": 4911,
      "ĠWood": 4912,
      "active": 4913,
      "Ġreturned": 4914,
      "Ġrestaurant": 4915,
      "cel": 4916,
      "ferences": 4917,
      "Ġflu": 4918,
      "Ġmanaged": 4919,
      "ript": 4920,
      "Ġcloud": 4921,
      "rd": 4922,
      "Ġhandle": 4923,
      "Ġwedding": 4924,
      "Ġmental": 4925,
      "Ġwaste": 4926,
      "Ġsched": 4927,
      "34": 4928,
      "Ġsouth": 4929,
      "Ġvideos": 4930,
      "ĠDiv": 4931,
      "Ġshut": 4932,
      "ĠPR": 4933,
      "ildren": 4934,
      "Ġpoll": 4935,
      "ĠMicrosoft": 4936,
      "ii": 4937,
      "!âĢĿ": 4938,
      "Ġarticles": 4939,
      "Ġagreement": 4940,
      "ĠClick": 4941,
      "Ġconsid": 4942,
      "aked": 4943,
      "Ġrain": 4944,
      "Ġthoughts": 4945,
      "Ġclassic": 4946,
      "while": 4947,
      "ĠCentral": 4948,
      "Ġteacher": 4949,
      "Ġcombination": 4950,
      "Ġselected": 4951,
      "ĠAND": 4952,
      "Ġfreed": 4953,
      "IR": 4954,
      "ĠFire": 4955,
      "Ġasking": 4956,
      "Ġvs": 4957,
      "Ġplants": 4958,
      "atures": 4959,
      "Ġsharing": 4960,
      "life": 4961,
      "Ġseparate": 4962,
      "PR": 4963,
      "Ġreached": 4964,
      "what": 4965,
      "ĠJew": 4966,
      "ENT": 4967,
      "craft": 4968,
      "ya": 4969,
      "Ġtree": 4970,
      "Ġadvanced": 4971,
      "Ġfacilities": 4972,
      "Ġsmaller": 4973,
      "oop": 4974,
      "Ġwinning": 4975,
      "Ġdiagn": 4976,
      "levision": 4977,
      "that": 4978,
      "ĠScott": 4979,
      "Ġcapacity": 4980,
      "Ġrelationships": 4981,
      "Ġride": 4982,
      "win": 4983,
      "Ġtaste": 4984,
      "ĠTO": 4985,
      "ĠFranc": 4986,
      "arge": 4987,
      "Ġworry": 4988,
      "Ġminor": 4989,
      "Ġidentify": 4990,
      "door": 4991,
      "Ġveget": 4992,
      "Ġdecisions": 4993,
      "Ġthr": 4994,
      "Ġcars": 4995,
      "ĠLove": 4996,
      "outs": 4997,
      "Ġclimate": 4998,
      "Ġexperts": 4999,
      "Ġprinci": 5000,
      "Ġchanging": 5001,
      "ĠCur": 5002,
      "Ġconcerns": 5003,
      "Ġcorporate": 5004,
      "ĠGovernment": 5005,
      "vention": 5006,
      "Ġteachers": 5007,
      "Ġbon": 5008,
      "Last": 5009,
      "Ġ>": 5010,
      "Ġking": 5011,
      "Ġfeels": 5012,
      "Ġdefense": 5013,
      "Ġabsolutely": 5014,
      "Ġdiet": 5015,
      "Ġsongs": 5016,
      "Ġpackage": 5017,
      "Ġfilled": 5018,
      "ushed": 5019,
      "Ġperformed": 5020,
      "net": 5021,
      "illa": 5022,
      "ĠLike": 5023,
      "Ġrid": 5024,
      "Ġjoint": 5025,
      "Ġfourth": 5026,
      "icken": 5027,
      "Ġflat": 5028,
      "ĠBlue": 5029,
      "Ġarchitect": 5030,
      "Ġdelic": 5031,
      "Ġminute": 5032,
      "Ġbrows": 5033,
      "Ġarrest": 5034,
      "Ġmouth": 5035,
      "Ġwalking": 5036,
      "Ġshape": 5037,
      "grad": 5038,
      "Ġputting": 5039,
      "Ġconnected": 5040,
      "Ġchief": 5041,
      "ĠJournal": 5042,
      "word": 5043,
      "ĠIns": 5044,
      "Ġdoubt": 5045,
      "noon": 5046,
      "ĠCheck": 5047,
      "zen": 5048,
      "Ġproud": 5049,
      "Ġcircum": 5050,
      "Ġdinner": 5051,
      "ĠChicago": 5052,
      "Ġdesk": 5053,
      "ait": 5054,
      "Ġproceed": 5055,
      "Ġposts": 5056,
      "Ġrelevant": 5057,
      "Ġseek": 5058,
      "Ġlisten": 5059,
      "Ġdocuments": 5060,
      "Ġalternative": 5061,
      "Ġcompar": 5062,
      "Acc": 5063,
      "you": 5064,
      "Ġmap": 5065,
      "DF": 5066,
      "orter": 5067,
      "Ġclim": 5068,
      "ĠProject": 5069,
      "Ġmarkets": 5070,
      "Ġcasino": 5071,
      "ĠWho": 5072,
      "Ġpreviously": 5073,
      "icians": 5074,
      "Ġcolors": 5075,
      "ini": 5076,
      "llig": 5077,
      "uts": 5078,
      "ĠSing": 5079,
      "Ġholiday": 5080,
      "Ġvisual": 5081,
      "Ġobtain": 5082,
      "ĠDevelopment": 5083,
      "Ġcab": 5084,
      "igr": 5085,
      "tenance": 5086,
      "BA": 5087,
      "Ġeating": 5088,
      "ĠSil": 5089,
      "Ġexplore": 5090,
      "Ġsoul": 5091,
      "ĠVol": 5092,
      "gery": 5093,
      "Ġeventually": 5094,
      "oles": 5095,
      "ga": 5096,
      "top": 5097,
      "igan": 5098,
      "ĠLeague": 5099,
      "ĠParty": 5100,
      "ĠWin": 5101,
      "ĠArch": 5102,
      "fortunately": 5103,
      "Ġlaun": 5104,
      "ye": 5105,
      "Ġnorth": 5106,
      "ĠJones": 5107,
      "ĠConst": 5108,
      "ĠEarth": 5109,
      "Ġelection": 5110,
      "ĠFrance": 5111,
      "Get": 5112,
      "cket": 5113,
      "usion": 5114,
      "Ġnovel": 5115,
      "Ġunless": 5116,
      "ĠTwo": 5117,
      "Le": 5118,
      "po": 5119,
      "ĠFood": 5120,
      "Ġban": 5121,
      "ĠUnion": 5122,
      "Ġoperating": 5123,
      "Ġforces": 5124,
      "Ġshipping": 5125,
      "ĠJer": 5126,
      "ĠCanad": 5127,
      "Ġ45": 5128,
      "ĠBur": 5129,
      "ricult": 5130,
      "Ġinitial": 5131,
      "umber": 5132,
      "ĠWomen": 5133,
      "ulate": 5134,
      "Ġneighbor": 5135,
      "ĠYes": 5136,
      "Ġbrings": 5137,
      "Ġessay": 5138,
      "Ġdatab": 5139,
      "ĠTheir": 5140,
      "Ġsurvey": 5141,
      "Ġformat": 5142,
      "Ġsitu": 5143,
      "tra": 5144,
      "Ġcommitted": 5145,
      "Ġappeared": 5146,
      "ĠLear": 5147,
      "Ġencourage": 5148,
      "coh": 5149,
      "rim": 5150,
      "Ġfocused": 5151,
      "ĠGra": 5152,
      "eal": 5153,
      "isation": 5154,
      "Ġdut": 5155,
      "Ġmanner": 5156,
      "nel": 5157,
      "Ġran": 5158,
      "Ġrise": 5159,
      "tered": 5160,
      "Ġphil": 5161,
      "ection": 5162,
      "poses": 5163,
      "ka": 5164,
      "uce": 5165,
      "Ġmicro": 5166,
      "unning": 5167,
      "Ġkick": 5168,
      "Ġaccompl": 5169,
      "Ġtemperature": 5170,
      "Ġinfluence": 5171,
      "ĠWestern": 5172,
      "Ġdu": 5173,
      "ĠMad": 5174,
      "Ġsea": 5175,
      "Ġadapt": 5176,
      "Ġarm": 5177,
      "essions": 5178,
      "osen": 5179,
      "Ġsigned": 5180,
      "Ġresponsibility": 5181,
      "ĠNY": 5182,
      "Ġfee": 5183,
      "Ġoperation": 5184,
      "ĠWall": 5185,
      "Ġplays": 5186,
      "Ġarg": 5187,
      "Ġminimum": 5188,
      "Ġconcent": 5189,
      "Ġbeauty": 5190,
      "ĠHam": 5191,
      "obe": 5192,
      "ĠEngine": 5193,
      "arrant": 5194,
      "rehens": 5195,
      "Ġapparent": 5196,
      "ĠMedia": 5197,
      "Ġcultural": 5198,
      "Ġroof": 5199,
      "Ġtechniques": 5200,
      "Ġseconds": 5201,
      "ki": 5202,
      "ĠHy": 5203,
      "Ġdrugs": 5204,
      "Every": 5205,
      "Ġfif": 5206,
      "ĠHill": 5207,
      "ĠGrand": 5208,
      "Ġcream": 5209,
      "Ġexpensive": 5210,
      "Ġfabric": 5211,
      "Ġsitting": 5212,
      "ĠBet": 5213,
      "ĠDown": 5214,
      "Ġfemale": 5215,
      "Ġnoted": 5216,
      "rolled": 5217,
      "Ġspl": 5218,
      "ĠVis": 5219,
      "oma": 5220,
      "Ġcommand": 5221,
      "ĠSocial": 5222,
      "Ġexciting": 5223,
      "ograp": 5224,
      "ĠLong": 5225,
      "Ġhelpful": 5226,
      "ĠTre": 5227,
      "Ġallowing": 5228,
      "Ġmeasures": 5229,
      "Ġreference": 5230,
      "Ġassistance": 5231,
      "ĠCommunity": 5232,
      "Ġterror": 5233,
      "Ġcart": 5234,
      "ifts": 5235,
      "Ġdecor": 5236,
      "ĠBob": 5237,
      "ushing": 5238,
      "Des": 5239,
      "Ġpm": 5240,
      "ĠToday": 5241,
      "iration": 5242,
      "rag": 5243,
      "Ġprofessionals": 5244,
      "----": 5245,
      "49": 5246,
      "Ġcities": 5247,
      "Ġinterests": 5248,
      "Ġconversation": 5249,
      "odies": 5250,
      "Ġreaders": 5251,
      "ĠAmazon": 5252,
      "ĠAtt": 5253,
      "ĠSpecial": 5254,
      "Ġholding": 5255,
      "Ġgarden": 5256,
      "ĠWil": 5257,
      "Ġchair": 5258,
      "ĠVe": 5259,
      "Ġestate": 5260,
      "Ġyouth": 5261,
      "ĠLos": 5262,
      "Ġsector": 5263,
      "kins": 5264,
      "ĠSociety": 5265,
      "Ġconfident": 5266,
      "Ġhero": 5267,
      "Ġraise": 5268,
      "Ġentry": 5269,
      "Ġsymptoms": 5270,
      "Ġcharges": 5271,
      "01": 5272,
      "OD": 5273,
      "ixt": 5274,
      "Ġartists": 5275,
      "arsh": 5276,
      "55": 5277,
      "88": 5278,
      "Ġunc": 5279,
      "ĠFoundation": 5280,
      "Ġforg": 5281,
      "Ġaccident": 5282,
      "Ġguests": 5283,
      "Ġforest": 5284,
      "Ġdebt": 5285,
      "ship": 5286,
      "Ġsupposed": 5287,
      "Ġweap": 5288,
      "Ġourselves": 5289,
      "Ġquiet": 5290,
      "Ġdecades": 5291,
      "oking": 5292,
      "ĠProfess": 5293,
      "bert": 5294,
      "Ġfacility": 5295,
      "ius": 5296,
      "ĠThanks": 5297,
      "ĠValley": 5298,
      "Ġenjoyed": 5299,
      "Ġproposed": 5300,
      "ears": 5301,
      "Ġpurposes": 5302,
      "Ġmotor": 5303,
      "cher": 5304,
      "uration": 5305,
      "39": 5306,
      "ĠUN": 5307,
      "otic": 5308,
      "Phone": 5309,
      "Read": 5310,
      "Ste": 5311,
      "Ġlived": 5312,
      "Ġfailed": 5313,
      "ĠElect": 5314,
      "Ġremoved": 5315,
      "Ġintellig": 5316,
      "ĠAfrican": 5317,
      "road": 5318,
      "ĠTest": 5319,
      "Ġtransform": 5320,
      "Ġswitch": 5321,
      "Ġsets": 5322,
      "Ġsuspect": 5323,
      "Ġnine": 5324,
      "Ġafternoon": 5325,
      "Ġprocesses": 5326,
      "Ġfriendly": 5327,
      "raq": 5328,
      "Ġsmooth": 5329,
      "Ġmedium": 5330,
      "ĠVirgin": 5331,
      "Add": 5332,
      "Ġtele": 5333,
      "Ġexplain": 5334,
      "rive": 5335,
      "Ġpush": 5336,
      "ĠForm": 5337,
      "oses": 5338,
      "ĠJud": 5339,
      "Ġmissing": 5340,
      "Well": 5341,
      "ĠDistrict": 5342,
      "ĠMel": 5343,
      "Ġselling": 5344,
      "Ġoptim": 5345,
      "ĠId": 5346,
      "ĠIts": 5347,
      "Ġsigns": 5348,
      "ructure": 5349,
      "ocolate": 5350,
      "ĠTrump": 5351,
      "Ġju": 5352,
      "Ġimportance": 5353,
      "Ġpossibly": 5354,
      "Just": 5355,
      "Ġtotally": 5356,
      "Ġcontem": 5357,
      "cuit": 5358,
      "Ġinternal": 5359,
      "Ġburn": 5360,
      "ĠTim": 5361,
      "ĠLu": 5362,
      "umin": 5363,
      "ĠÃ": 5364,
      "46": 5365,
      "Ġder": 5366,
      "Ġrevenue": 5367,
      "ĠDi": 5368,
      "Ġeditor": 5369,
      "Ġadults": 5370,
      "den": 5371,
      "Ġmo": 5372,
      "Ġfamiliar": 5373,
      "Ġpredict": 5374,
      "orthern": 5375,
      "Ġserving": 5376,
      "Ġproperties": 5377,
      "ĠData": 5378,
      "ups": 5379,
      "Ġdistance": 5380,
      "Ġfunding": 5381,
      "ena": 5382,
      "kin": 5383,
      "ĠBack": 5384,
      "Ġspons": 5385,
      "Ġtypically": 5386,
      "Ġforced": 5387,
      "ĠRE": 5388,
      "Ġsupported": 5389,
      "ulations": 5390,
      "ĠDuring": 5391,
      "Ġoccup": 5392,
      "ĠNov": 5393,
      "Ġemp": 5394,
      "Ġcalling": 5395,
      "ĠCall": 5396,
      "ĠPay": 5397,
      "ilding": 5398,
      "Ġresearc": 5399,
      "ĠMcC": 5400,
      "SA": 5401,
      "ĠExper": 5402,
      "Ġjoined": 5403,
      "Ġnegative": 5404,
      "ĠThomas": 5405,
      "However": 5406,
      "cipe": 5407,
      "Ġtrees": 5408,
      "ĠRobert": 5409,
      "ĠAtl": 5410,
      "31": 5411,
      "atin": 5412,
      "ĠMer": 5413,
      "istan": 5414,
      "Ġinstance": 5415,
      "Ġrepair": 5416,
      "Ġmarriage": 5417,
      "ĠGerman": 5418,
      "Ġcop": 5419,
      "Ġvan": 5420,
      "Ġscale": 5421,
      "okes": 5422,
      "Ġseat": 5423,
      "Ġrooms": 5424,
      "Can": 5425,
      "hand": 5426,
      "ĠLin": 5427,
      "ĠLook": 5428,
      "Ġmarried": 5429,
      "ria": 5430,
      "Ġintended": 5431,
      "under": 5432,
      "Ġdie": 5433,
      "isher": 5434,
      "Ġmir": 5435,
      "ician": 5436,
      "aser": 5437,
      "Ġwriter": 5438,
      "ano": 5439,
      "ĠTeam": 5440,
      "ĠSecret": 5441,
      "Ġsav": 5442,
      "Ġamb": 5443,
      "cluding": 5444,
      "ĠMot": 5445,
      "Ġtrouble": 5446,
      "ĠReal": 5447,
      "Ġedge": 5448,
      "Ġstores": 5449,
      "Ġrecommended": 5450,
      "Ġment": 5451,
      "ĠMass": 5452,
      "Ġtheme": 5453,
      "ommod": 5454,
      "wo": 5455,
      "ĠIP": 5456,
      "Ġexchange": 5457,
      "Ġdistrict": 5458,
      "Ġrapid": 5459,
      "Ġtow": 5460,
      "ĠJim": 5461,
      "Ġprison": 5462,
      "Ġsuppl": 5463,
      "ivered": 5464,
      "Ġpregn": 5465,
      "Ġcauses": 5466,
      "Ġdogs": 5467,
      "Ġconsequ": 5468,
      "ario": 5469,
      "Ġshock": 5470,
      "Ġgreatest": 5471,
      "ĠQue": 5472,
      "ita": 5473,
      "Ġmotiv": 5474,
      "Ġproperly": 5475,
      "ĠAccording": 5476,
      "LA": 5477,
      "Ġmale": 5478,
      "Ġtopic": 5479,
      "Ġanimal": 5480,
      "idden": 5481,
      "ĠGermany": 5482,
      "een": 5483,
      "ĠIraq": 5484,
      "Ġyesterday": 5485,
      "Ġspeech": 5486,
      "ĠIsl": 5487,
      "Ġveter": 5488,
      "Ġsteel": 5489,
      "Ġreligious": 5490,
      "ĠRad": 5491,
      "Ġwire": 5492,
      "ĠDig": 5493,
      "Ġteach": 5494,
      "Ġconfirm": 5495,
      "ĠCEO": 5496,
      "Ġbusy": 5497,
      "ampionship": 5498,
      "Ġ2003": 5499,
      "Ġdetailed": 5500,
      "Ġsuit": 5501,
      "ĠLead": 5502,
      "Ġaid": 5503,
      "Ġcaught": 5504,
      "ĠShow": 5505,
      "Ġfreedom": 5506,
      "Ġinfe": 5507,
      "UT": 5508,
      "erg": 5509,
      "ogue": 5510,
      "ĠStand": 5511,
      "Ġmovies": 5512,
      "Ġtells": 5513,
      "reens": 5514,
      "Ġstret": 5515,
      "Ġapproximately": 5516,
      "App": 5517,
      "LC": 5518,
      "ht": 5519,
      "Ġeffic": 5520,
      "Ġloan": 5521,
      "Yes": 5522,
      "uable": 5523,
      "arian": 5524,
      "Ġstated": 5525,
      "Ġfruit": 5526,
      "Ġlib": 5527,
      "Ġcheap": 5528,
      "Ġagreed": 5529,
      "grade": 5530,
      "phas": 5531,
      "ĠOnly": 5532,
      "Ġparking": 5533,
      "Ġviolence": 5534,
      "Ġstopped": 5535,
      "Ġdiscount": 5536,
      "Ġaccounts": 5537,
      "Ġcombined": 5538,
      "Ġwitness": 5539,
      "Ġdial": 5540,
      "Ġlibrary": 5541,
      "Ġune": 5542,
      "Ġinstit": 5543,
      "Ġvalid": 5544,
      "burg": 5545,
      "Ġtwice": 5546,
      "Ġlocations": 5547,
      "Ġorders": 5548,
      "Ġconflic": 5549,
      "Ġdollars": 5550,
      "UN": 5551,
      "lets": 5552,
      "ems": 5553,
      "DS": 5554,
      "ĠTake": 5555,
      "Ġang": 5556,
      "dden": 5557,
      "ĠLouis": 5558,
      "Ġapplied": 5559,
      "Ġchemical": 5560,
      "77": 5561,
      "Ġremark": 5562,
      "Ġprofile": 5563,
      "edia": 5564,
      "Ġjudge": 5565,
      "Ġ500": 5566,
      "ĠOrgan": 5567,
      "Ġspecifically": 5568,
      "Ġtro": 5569,
      "Ġbeach": 5570,
      "ometimes": 5571,
      "Let": 5572,
      "Ġlunch": 5573,
      "ĠLight": 5574,
      "ĠGar": 5575,
      "Ġfees": 5576,
      "ĠCustom": 5577,
      "ĠPeter": 5578,
      "ums": 5579,
      "Ġdesigns": 5580,
      "igation": 5581,
      "Ġarrange": 5582,
      "ĠOld": 5583,
      "prise": 5584,
      "Ġprocessing": 5585,
      "ĠJeff": 5586,
      "Ġfuel": 5587,
      "Ġvolume": 5588,
      "Ġarrived": 5589,
      "Ġlabel": 5590,
      "ĠDou": 5591,
      "Ġresident": 5592,
      "Ġdisp": 5593,
      "Ġbroken": 5594,
      "Ġaspects": 5595,
      "osoph": 5596,
      "Ġassum": 5597,
      "Ġseeking": 5598,
      "Ġconcerned": 5599,
      "Ġdefend": 5600,
      "Ġmine": 5601,
      "Ġgall": 5602,
      "Ġtelevision": 5603,
      "ĠBeach": 5604,
      "Ġtough": 5605,
      "Ġkill": 5606,
      "uclear": 5607,
      "According": 5608,
      "Ġtun": 5609,
      "orry": 5610,
      "Ġdecre": 5611,
      "Ġpanel": 5612,
      "related": 5613,
      "Ne": 5614,
      "Ġflight": 5615,
      "Ġintroduced": 5616,
      "iest": 5617,
      "Ġbelief": 5618,
      "Ġdomin": 5619,
      "Ġquant": 5620,
      "Ġdetect": 5621,
      "Ġperspective": 5622,
      "ĠMS": 5623,
      "Ġprop": 5624,
      "Ġpromote": 5625,
      "rooms": 5626,
      "iminal": 5627,
      "ĠFrank": 5628,
      "Ġwebsites": 5629,
      "ĠID": 5630,
      "Ġadvis": 5631,
      "Ġrealize": 5632,
      "Ġannounce": 5633,
      "ĠAngeles": 5634,
      "Ġingredients": 5635,
      "Ġpure": 5636,
      "alled": 5637,
      "Ġcourses": 5638,
      "van": 5639,
      "ĠMont": 5640,
      "Ġapproved": 5641,
      "ĠNetwork": 5642,
      "iat": 5643,
      "ĠIll": 5644,
      "ĠVict": 5645,
      "Ġsport": 5646,
      "ĠChris": 5647,
      "Ġturns": 5648,
      "Ġoccasion": 5649,
      "Ġhun": 5650,
      "Ġconfidence": 5651,
      "ĠAcadem": 5652,
      "Ġtreated": 5653,
      "Ġpicked": 5654,
      "Ġaudio": 5655,
      "Che": 5656,
      ".|": 5657,
      "mar": 5658,
      "Ġweak": 5659,
      "Ġsudden": 5660,
      "Ġstanding": 5661,
      "Ġacademic": 5662,
      "Ġtight": 5663,
      "Ġmenu": 5664,
      "bour": 5665,
      "Ġcategory": 5666,
      "Ġcircumst": 5667,
      "Ġdiscovered": 5668,
      "kay": 5669,
      "Ġtelling": 5670,
      "rical": 5671,
      "Ġpun": 5672,
      "Ġdance": 5673,
      "Ġdepos": 5674,
      "Ġmetal": 5675,
      "Ġaffected": 5676,
      "Ġregistered": 5677,
      "Ġworse": 5678,
      "Ġvisitors": 5679,
      "cohol": 5680,
      "ĠReport": 5681,
      "Ġ2002": 5682,
      "Res": 5683,
      "VD": 5684,
      "Ġine": 5685,
      "icit": 5686,
      "ĠJoe": 5687,
      "Ġanywhere": 5688,
      "mes": 5689,
      "pass": 5690,
      "yan": 5691,
      "Ġeducational": 5692,
      "ĠHol": 5693,
      "Ġconsumers": 5694,
      "05": 5695,
      "Ġath": 5696,
      "Ġconfig": 5697,
      "Ġbringing": 5698,
      "Ġdesire": 5699,
      "Ġcarried": 5700,
      "met": 5701,
      "ĠIr": 5702,
      "Ġunits": 5703,
      "Ġtests": 5704,
      "Ġdepending": 5705,
      "Ġmaximum": 5706,
      "FL": 5707,
      "Ġtechnologies": 5708,
      "Ġlandsc": 5709,
      "ala": 5710,
      "Ġuns": 5711,
      "Ġdyn": 5712,
      "Ġquot": 5713,
      "ĠRev": 5714,
      "Ġrecip": 5715,
      "kes": 5716,
      "asks": 5717,
      "Ġgather": 5718,
      "Ġteen": 5719,
      "ĠConference": 5720,
      "ĠWilliam": 5721,
      "Ġbound": 5722,
      "Ġfort": 5723,
      "ossible": 5724,
      "nergy": 5725,
      "ĠPerson": 5726,
      "rier": 5727,
      "agram": 5728,
      "ingly": 5729,
      "ĠCard": 5730,
      "ĠHen": 5731,
      "ĠInvest": 5732,
      "Ġmaintenance": 5733,
      "ĠNC": 5734,
      "ulty": 5735,
      "Ġfavour": 5736,
      "Ġsevere": 5737,
      "ensions": 5738,
      "Ġemployee": 5739,
      "Ġconsidering": 5740,
      "cean": 5741,
      "Ġresol": 5742,
      "Ġdelivered": 5743,
      "ĠMrs": 5744,
      "Ġfailure": 5745,
      "ĠMusic": 5746,
      "ownt": 5747,
      "ocation": 5748,
      "Ġinspired": 5749,
      "Ġthick": 5750,
      "ĠAD": 5751,
      "Ġexecutive": 5752,
      "lo": 5753,
      "ĠAS": 5754,
      "ĠFamily": 5755,
      "ĠJose": 5756,
      "Ġsupporting": 5757,
      "Ġfactor": 5758,
      "Ġappearance": 5759,
      "Ġcrisis": 5760,
      "Ġtheory": 5761,
      "Ġwealth": 5762,
      "Ġdraft": 5763,
      "ĠGen": 5764,
      "Ġcalcul": 5765,
      "EE": 5766,
      "Most": 5767,
      "bu": 5768,
      "Ġincorpor": 5769,
      "rick": 5770,
      "Ġrub": 5771,
      "Ġerror": 5772,
      "ĠMike": 5773,
      "Ġenem": 5774,
      "Ġhistorical": 5775,
      "Ġcoast": 5776,
      "hetic": 5777,
      "ias": 5778,
      "Ġec": 5779,
      "Ġaccommod": 5780,
      "EW": 5781,
      "Ġfold": 5782,
      "Ġneck": 5783,
      "Ġbegins": 5784,
      "Te": 5785,
      "Ġprocedure": 5786,
      "Ġadvertising": 5787,
      "Ġschol": 5788,
      "eper": 5789,
      "Ġfly": 5790,
      "Ġalle": 5791,
      "irty": 5792,
      "ĠFind": 5793,
      "orough": 5794,
      "Ġfle": 5795,
      "Ġcomprehens": 5796,
      "Ġbigger": 5797,
      "Ġspiritual": 5798,
      "Ġvary": 5799,
      "Ġends": 5800,
      "Ġcloser": 5801,
      "Ġextensive": 5802,
      "ĠCarolina": 5803,
      "Ġwal": 5804,
      "ĠCy": 5805,
      "Ġcomponents": 5806,
      "Ġelement": 5807,
      "igration": 5808,
      "ĠFort": 5809,
      "ĠJul": 5810,
      "ĠProduct": 5811,
      "Ġwearing": 5812,
      "ĠPan": 5813,
      "gypt": 5814,
      "Ġyes": 5815,
      "ĠSand": 5816,
      "Ġstars": 5817,
      "cipl": 5818,
      "ĠHead": 5819,
      "Us": 5820,
      "ĠAward": 5821,
      "ĠDen": 5822,
      "rip": 5823,
      "ola": 5824,
      "Ġprovider": 5825,
      "Ġimproved": 5826,
      "Ġofficer": 5827,
      "Ġenhance": 5828,
      "Ġ2001": 5829,
      "Ġtradition": 5830,
      "Ġparticipate": 5831,
      "ĠCanadian": 5832,
      "Ġmere": 5833,
      "aped": 5834,
      "ĠStep": 5835,
      "clusion": 5836,
      "Ġinvestigation": 5837,
      "ĠYOU": 5838,
      "Ġbrown": 5839,
      "86": 5840,
      "Ġrom": 5841,
      "lla": 5842,
      "Ġphotograph": 5843,
      "Ġlaunched": 5844,
      "Ġinput": 5845,
      "Ġlit": 5846,
      "II": 5847,
      "iveness": 5848,
      "ĠGame": 5849,
      "Ġexplained": 5850,
      "OC": 5851,
      "Qu": 5852,
      "Ġjoy": 5853,
      "Ġremote": 5854,
      "Ġreduced": 5855,
      "ĠBi": 5856,
      "ĠLab": 5857,
      "tters": 5858,
      "Ġentirely": 5859,
      "ĠTechnology": 5860,
      "ĠHuman": 5861,
      "ĠCorpor": 5862,
      "Sc": 5863,
      "Su": 5864,
      "Ġsam": 5865,
      "ĠAL": 5866,
      "Ġregister": 5867,
      "ployment": 5868,
      "Any": 5869,
      "Ġhundreds": 5870,
      "Ġepisode": 5871,
      ".âĢĻ": 5872,
      "Ġclinical": 5873,
      "ideo": 5874,
      "ĠEnter": 5875,
      "ĠParis": 5876,
      "Ġscientific": 5877,
      "sm": 5878,
      "ĠBoth": 5879,
      "About": 5880,
      "Am": 5881,
      "Ġtables": 5882,
      "Ġsalt": 5883,
      "Ġplastic": 5884,
      "Ġsymb": 5885,
      "Ġprepare": 5886,
      "ĠHistory": 5887,
      "Ġsides": 5888,
      "irmed": 5889,
      "Ġuniversity": 5890,
      "Ġcounty": 5891,
      "lastname": 5892,
      "Ġtruck": 5893,
      "Ġcleaning": 5894,
      "Ġped": 5895,
      "Ġmut": 5896,
      "Ġmedicine": 5897,
      "Ġdetermined": 5898,
      "Ġawesome": 5899,
      "En": 5900,
      "ĠAT": 5901,
      "oston": 5902,
      "Ġbutter": 5903,
      "Ġperman": 5904,
      "Ġagent": 5905,
      "First": 5906,
      "pret": 5907,
      "ĠBre": 5908,
      "Ġelimin": 5909,
      "abet": 5910,
      "Ġresource": 5911,
      "Ġhighlight": 5912,
      "Ġfurniture": 5913,
      "Americ": 5914,
      "Ġunivers": 5915,
      "aren": 5916,
      "Ġswim": 5917,
      "ĠMedical": 5918,
      "Ġtrib": 5919,
      "Ġsquare": 5920,
      "ingu": 5921,
      "ilit": 5922,
      "Ġbelong": 5923,
      "Ġcommitment": 5924,
      "08": 5925,
      "ket": 5926,
      "ĠMic": 5927,
      "Ġbuildings": 5928,
      "Ġemergency": 5929,
      "Ġrecipe": 5930,
      "ĠAud": 5931,
      "Ġconcern": 5932,
      "Ġcrew": 5933,
      "Ġsister": 5934,
      "ĠCup": 5935,
      "ĠWay": 5936,
      "Ġagencies": 5937,
      "Ġmagn": 5938,
      "Ġriver": 5939,
      "iability": 5940,
      "pot": 5941,
      "Ġsan": 5942,
      "Ġ32": 5943,
      "Ġcrime": 5944,
      "Ġodd": 5945,
      "Ġhousehold": 5946,
      "Ġboost": 5947,
      "hors": 5948,
      "Ġdangerous": 5949,
      "Ġsad": 5950,
      "Ġapps": 5951,
      "Ġdestroy": 5952,
      "Ġnone": 5953,
      "Ġoblig": 5954,
      "Ġprotein": 5955,
      "Ġfilms": 5956,
      "ĠMaster": 5957,
      "ibilities": 5958,
      "Ġpaying": 5959,
      "ĠFil": 5960,
      "Ġworksh": 5961,
      "Ġinstalled": 5962,
      "Ġhur": 5963,
      "ĠIran": 5964,
      "ĠCath": 5965,
      "Ġsurgery": 5966,
      "eries": 5967,
      "acks": 5968,
      "Ġhousing": 5969,
      "list": 5970,
      "Ġliqu": 5971,
      "Ġgro": 5972,
      "Ġrough": 5973,
      "ĠView": 5974,
      "Ġemphas": 5975,
      "Ġfunctions": 5976,
      "Ġeffectively": 5977,
      "never": 5978,
      "Ġformed": 5979,
      "Ġaccepted": 5980,
      "Ġconsumer": 5981,
      "See": 5982,
      "Ġchain": 5983,
      "Ġrecorded": 5984,
      "oration": 5985,
      "Ġbond": 5986,
      "ĠNor": 5987,
      "Ġdiscl": 5988,
      "azz": 5989,
      "Ġfantastic": 5990,
      "AG": 5991,
      "Ġring": 5992,
      "Ġ36": 5993,
      "Ġinstallation": 5994,
      "Ġfaster": 5995,
      "ĠHave": 5996,
      "FC": 5997,
      "rate": 5998,
      "Ġfoods": 5999,
      "anged": 6000,
      "ifications": 6001,
      "Ġidentified": 6002,
      "Ġtherapy": 6003,
      "Ġshares": 6004,
      "Ġinvestors": 6005,
      "Ġauthority": 6006,
      "opyright": 6007,
      "Ġvehicles": 6008,
      "Ġvictory": 6009,
      "ĠFund": 6010,
      "Ġherself": 6011,
      "prene": 6012,
      "Ġinstitutions": 6013,
      "ĠPenn": 6014,
      "Ġspeaking": 6015,
      "Ġindustrial": 6016,
      "Ġautomatically": 6017,
      "Ġ<": 6018,
      "Ġmal": 6019,
      "ĠFederal": 6020,
      "ĠVirginia": 6021,
      "alian": 6022,
      "Ġworldwide": 6023,
      "ĠAdv": 6024,
      "Ġattacks": 6025,
      "Ġfellow": 6026,
      ":||": 6027,
      "ulous": 6028,
      "elines": 6029,
      "Ġmeat": 6030,
      "Ġelig": 6031,
      "ĠSeries": 6032,
      "Ġnav": 6033,
      "Ġkeeps": 6034,
      "ĠJohnson": 6035,
      "Ġwindows": 6036,
      "ĠProte": 6037,
      "Ġlights": 6038,
      "itutional": 6039,
      "Ġfeedback": 6040,
      "eah": 6041,
      "Ġlux": 6042,
      "respond": 6043,
      "Ġremaining": 6044,
      "rastructure": 6045,
      "ĠMexico": 6046,
      "Or": 6047,
      "Ġsole": 6048,
      "ĠWord": 6049,
      "ĠiPhone": 6050,
      "Ġconstruct": 6051,
      "Ġlayer": 6052,
      "Up": 6053,
      "Ġchapter": 6054,
      "Ġflo": 6055,
      "Ġcolour": 6056,
      "Ġstrategies": 6057,
      "hus": 6058,
      "hent": 6059,
      "ĠLast": 6060,
      "Ġjustice": 6061,
      "Ġreturns": 6062,
      "Ġwarrant": 6063,
      "Ġsubstant": 6064,
      "!)": 6065,
      "Ħ¢": 6066,
      "Ġusual": 6067,
      "ĠKore": 6068,
      "Ġfollows": 6069,
      "Ġappeal": 6070,
      "ĠMa": 6071,
      "Ġcreation": 6072,
      "Ġemployment": 6073,
      "Ġfields": 6074,
      "Ġimagine": 6075,
      "nov": 6076,
      "Ġtast": 6077,
      "Ġsample": 6078,
      "ĠHD": 6079,
      "wing": 6080,
      "enced": 6081,
      "Ġtom": 6082,
      "ighter": 6083,
      "ĠStart": 6084,
      "Ġwinner": 6085,
      "Ġdatabase": 6086,
      "ĠAR": 6087,
      "Ġhabit": 6088,
      "Ġunf": 6089,
      "Ġplanned": 6090,
      "ĠSecond": 6091,
      "ĠCharl": 6092,
      "42": 6093,
      "43": 6094,
      "reprene": 6095,
      "Ġrot": 6096,
      "arrow": 6097,
      "Ġreform": 6098,
      "ĠOper": 6099,
      "Ġtaught": 6100,
      "Ġlaugh": 6101,
      "ĠThank": 6102,
      "erves": 6103,
      "Ġgoods": 6104,
      "Ġpractical": 6105,
      "ĠSecurity": 6106,
      "Ġholds": 6107,
      "Fr": 6108,
      "Oh": 6109,
      "Ĥ¬": 6110,
      "ading": 6111,
      "Ġrecovery": 6112,
      "Ke": 6113,
      "Ġstorm": 6114,
      "ĠMax": 6115,
      "ĠDan": 6116,
      "Ġpolitics": 6117,
      "??": 6118,
      "Ġstim": 6119,
      "Ġtiss": 6120,
      "ĠProv": 6121,
      "Ġpublish": 6122,
      "Ġmeal": 6123,
      "Ġexpression": 6124,
      "lock": 6125,
      "ĠON": 6126,
      "Ġcontrast": 6127,
      "Ġreceiving": 6128,
      "Ġtaxes": 6129,
      "Ġmotion": 6130,
      "Ġcycle": 6131,
      "CE": 6132,
      "ĠBoy": 6133,
      "Ġpu": 6134,
      "ĠLind": 6135,
      "Ġrestrict": 6136,
      "Ġmilk": 6137,
      "Ġexamples": 6138,
      "ĠMartin": 6139,
      "Ġmatters": 6140,
      "07": 6141,
      "Ġfulf": 6142,
      "estyle": 6143,
      "ĠLand": 6144,
      "Ġchosen": 6145,
      "ache": 6146,
      "rics": 6147,
      "oti": 6148,
      "ĠSto": 6149,
      "Ġmusical": 6150,
      "ĠGlobal": 6151,
      "ĠHaw": 6152,
      "Ġfacts": 6153,
      "ĠAri": 6154,
      "ĠOffic": 6155,
      "Ġpresentation": 6156,
      "Ġaf": 6157,
      "Ġforth": 6158,
      "ĠMatt": 6159,
      "Ġrelatively": 6160,
      "Ġincreases": 6161,
      "mosp": 6162,
      "ĠList": 6163,
      "ĠAdminist": 6164,
      "Ġkinds": 6165,
      "ĠâĢ¢": 6166,
      "Ġreput": 6167,
      "ĠAustralian": 6168,
      "Ġboys": 6169,
      "ĠSenate": 6170,
      "real": 6171,
      "Ġsignificantly": 6172,
      "rog": 6173,
      "Ġanx": 6174,
      "ĠPub": 6175,
      "Ġabuse": 6176,
      "Ġdram": 6177,
      "Ġcritic": 6178,
      "reets": 6179,
      "Ġissued": 6180,
      "Ġindeed": 6181,
      "ĠExt": 6182,
      "Ġchoices": 6183,
      "ĠEgypt": 6184,
      "Ġarms": 6185,
      "iors": 6186,
      "Ġcontro": 6187,
      "Ġhardware": 6188,
      "Ġparticipants": 6189,
      "Ġhonor": 6190,
      "Ġhttps": 6191,
      "hi": 6192,
      "Ġgrade": 6193,
      "Ġequal": 6194,
      "Ġcutting": 6195,
      "ĠMinister": 6196,
      "Ġupdated": 6197,
      "ĠOR": 6198,
      "Ġknowing": 6199,
      "Ġboat": 6200,
      "Ġbelieved": 6201,
      "Ġtrading": 6202,
      "âĦ¢": 6203,
      "Ġupdates": 6204,
      "Ġfolks": 6205,
      "iams": 6206,
      "ĠWild": 6207,
      "Ġcircumstances": 6208,
      "ĠBas": 6209,
      "Ġrand": 6210,
      "ĠScot": 6211,
      "Ġvacc": 6212,
      "Ġsettings": 6213,
      "Mar": 6214,
      "Ġmel": 6215,
      "cknow": 6216,
      "ĠRepublican": 6217,
      "fol": 6218,
      "IF": 6219,
      "Over": 6220,
      "esh": 6221,
      "appy": 6222,
      "Ġmassive": 6223,
      "Ġcommission": 6224,
      "Ġmoments": 6225,
      "ĠInstead": 6226,
      "alog": 6227,
      "ĠEconom": 6228,
      "Ġworst": 6229,
      "Ġrecognized": 6230,
      "Ġinnovative": 6231,
      "west": 6232,
      "lymp": 6233,
      "ĠWal": 6234,
      "Ġconstantly": 6235,
      "Ġobvious": 6236,
      "tr": 6237,
      "Ġgrab": 6238,
      "ĠPac": 6239,
      "Ġexcess": 6240,
      "ĠLim": 6241,
      "Ġmode": 6242,
      "Ġshoes": 6243,
      "ĠPolice": 6244,
      "PC": 6245,
      "oral": 6246,
      "Ġunlike": 6247,
      "Ġdistinct": 6248,
      "Ġengineering": 6249,
      "Ġsurprise": 6250,
      "Ġincredible": 6251,
      "arp": 6252,
      "Ġsimpl": 6253,
      "Ġsuggested": 6254,
      "secut": 6255,
      "Ġadministr": 6256,
      "Ġguarantee": 6257,
      "09": 6258,
      "Spe": 6259,
      "can": 6260,
      "ĠMiddle": 6261,
      "Ġancient": 6262,
      "Ġtrend": 6263,
      "Ġbike": 6264,
      "Ġhurt": 6265,
      "Ġ48": 6266,
      "Ġcooper": 6267,
      "raig": 6268,
      "ĠNOT": 6269,
      "eless": 6270,
      "Ind": 6271,
      "Since": 6272,
      "rome": 6273,
      "ournament": 6274,
      "Ġcompetitive": 6275,
      "Ġguest": 6276,
      "Ġofficers": 6277,
      "Ġprocedures": 6278,
      "ĠCat": 6279,
      "ĠEnergy": 6280,
      "Ġleague": 6281,
      "Ġnoticed": 6282,
      "Ġpoly": 6283,
      "Ġlicense": 6284,
      "rum": 6285,
      "ĠMuseum": 6286,
      "Then": 6287,
      "Ġturning": 6288,
      "race": 6289,
      "Ġoutput": 6290,
      "Ġpositions": 6291,
      "Ġdebate": 6292,
      "ĠAbout": 6293,
      "Ġresearchers": 6294,
      "ML": 6295,
      "Ġid": 6296,
      "comm": 6297,
      "ĠAndroid": 6298,
      "Ġportion": 6299,
      "Ġcooking": 6300,
      "Ġregularly": 6301,
      "Ġtalent": 6302,
      "Ġneighborhood": 6303,
      "endar": 6304,
      "Ġdistribution": 6305,
      "owing": 6306,
      "Ġbreast": 6307,
      "uated": 6308,
      "Ġroute": 6309,
      "Ġexpertise": 6310,
      "aks": 6311,
      "Ġcharged": 6312,
      "writ": 6313,
      "Ġnurs": 6314,
      "Ġrevolution": 6315,
      "atre": 6316,
      "gend": 6317,
      "ĠiP": 6318,
      "02": 6319,
      "98": 6320,
      "Ġtack": 6321,
      "Ġven": 6322,
      "Ġsky": 6323,
      ".'": 6324,
      "Ġpump": 6325,
      "Ġupper": 6326,
      "ansion": 6327,
      "anger": 6328,
      "Ġstudio": 6329,
      "Ġearned": 6330,
      "Another": 6331,
      "Ġpurchased": 6332,
      "Ġrevealed": 6333,
      "MA": 6334,
      "ĠMaybe": 6335,
      "Ġfixed": 6336,
      "Ġrandom": 6337,
      "Ġgrew": 6338,
      "Ġcriminal": 6339,
      "Ġ300": 6340,
      "ensity": 6341,
      "ansas": 6342,
      "Ġchat": 6343,
      "Ġreasonable": 6344,
      "Ġbattery": 6345,
      "han": 6346,
      "Ġlovely": 6347,
      "Ġvaluable": 6348,
      "hered": 6349,
      "ĠSqu": 6350,
      "Ġassemb": 6351,
      "Ġdomestic": 6352,
      "Ġcomprehensive": 6353,
      "Ġsac": 6354,
      "Ġgrown": 6355,
      "Ġenable": 6356,
      "Ġscored": 6357,
      "Ġowned": 6358,
      "ATION": 6359,
      "ĠBoston": 6360,
      "Ġregional": 6361,
      "Ġguard": 6362,
      "abled": 6363,
      "Ġscript": 6364,
      "Ġconserv": 6365,
      "Ġshooting": 6366,
      "Ġtickets": 6367,
      "Ġentertainment": 6368,
      "inations": 6369,
      "ato": 6370,
      "ĠWhere": 6371,
      "ĠLibrary": 6372,
      "Ġdoors": 6373,
      "cluded": 6374,
      "ĠSteve": 6375,
      "Ġextended": 6376,
      "Ġdisappoint": 6377,
      "Im": 6378,
      "ras": 6379,
      "Ġsick": 6380,
      "cribe": 6381,
      "Ġinnovation": 6382,
      "gent": 6383,
      "ĠLib": 6384,
      "quality": 6385,
      "Ġsuitable": 6386,
      "ĠArts": 6387,
      "TA": 6388,
      "ĠCas": 6389,
      "Ġconver": 6390,
      "Today": 6391,
      "ĠDef": 6392,
      "tle": 6393,
      "ĠTour": 6394,
      "Ġalcohol": 6395,
      "erts": 6396,
      "ĠPlus": 6397,
      "Ġhealthcare": 6398,
      "Ġdefined": 6399,
      "Ġemotional": 6400,
      "Ġdump": 6401,
      "ĠMichigan": 6402,
      "forcement": 6403,
      "Other": 6404,
      "ĠMen": 6405,
      "ĠFarm": 6406,
      "oga": 6407,
      "Ġmonthly": 6408,
      "Ġbreath": 6409,
      "ollywood": 6410,
      "Ġscheduled": 6411,
      "==": 6412,
      "Ġsyn": 6413,
      "ĠSupport": 6414,
      "06": 6415,
      "inem": 6416,
      "ĠMo": 6417,
      "Ġspr": 6418,
      "Ġprotected": 6419,
      "ĠColorado": 6420,
      "Ġacknow": 6421,
      "Ġwid": 6422,
      "Ġtopics": 6423,
      "Ġcentre": 6424,
      "ĠSpirit": 6425,
      "Ġidentity": 6426,
      "gage": 6427,
      "inch": 6428,
      "Ġhook": 6429,
      "Many": 6430,
      "TC": 6431,
      "ĠMur": 6432,
      "ĠBush": 6433,
      "iverse": 6434,
      "Pe": 6435,
      "inet": 6436,
      "ĠWeek": 6437,
      "Ġelectronic": 6438,
      "Ġupcoming": 6439,
      "ĠThose": 6440,
      "orders": 6441,
      "Ġinvolve": 6442,
      "TER": 6443,
      "Ġauthorities": 6444,
      "SP": 6445,
      "Ġmagazine": 6446,
      "Ġmissed": 6447,
      "Ġanswers": 6448,
      "print": 6449,
      "Ġtail": 6450,
      "Ġvast": 6451,
      "ĠKnow": 6452,
      "Ġadvoc": 6453,
      "Ġcrazy": 6454,
      "Ġbrands": 6455,
      "Ã¡": 6456,
      "ĠPage": 6457,
      "Ġdepress": 6458,
      "arts": 6459,
      "Ġteeth": 6460,
      "Ġcarefully": 6461,
      "Ġhappening": 6462,
      "Ġmessages": 6463,
      "ĠJapanese": 6464,
      "Ġmillions": 6465,
      "from": 6466,
      "Ġyellow": 6467,
      "Ġdrivers": 6468,
      "Ġtypical": 6469,
      "Ġfrequently": 6470,
      "Go": 6471,
      "Ġtea": 6472,
      "Ġreliable": 6473,
      "Ġfeatured": 6474,
      "Are": 6475,
      "Ġiron": 6476,
      "Ġlosing": 6477,
      "Ġperfectly": 6478,
      "Ġillustr": 6479,
      "ĠVictor": 6480,
      "Ġcro": 6481,
      "ĠOil": 6482,
      "odd": 6483,
      "ĠVer": 6484,
      "ĠIndust": 6485,
      "Ġfacing": 6486,
      "Click": 6487,
      "Ġclothes": 6488,
      "aid": 6489,
      "Ġbread": 6490,
      "alle": 6491,
      "omy": 6492,
      "ĠLog": 6493,
      "Ġentered": 6494,
      "ĠColumb": 6495,
      "Ġimpossible": 6496,
      "Ġmeetings": 6497,
      "Ġfighting": 6498,
      "Ġappreciate": 6499,
      "mary": 6500,
      "oman": 6501,
      "illy": 6502,
      "weight": 6503,
      "Ġhyd": 6504,
      "uting": 6505,
      "agon": 6506,
      "Ġmechanism": 6507,
      "Of": 6508,
      "ef": 6509,
      "host": 6510,
      "cers": 6511,
      "Ġplate": 6512,
      "anges": 6513,
      "ĠAsia": 6514,
      "ĠAnother": 6515,
      "Ġsupports": 6516,
      "GB": 6517,
      "ĠAccess": 6518,
      "Ġatmosp": 6519,
      "ĠDev": 6520,
      "ĠRussian": 6521,
      "oster": 6522,
      "paper": 6523,
      ")||": 6524,
      "Ġedition": 6525,
      "Ġwalls": 6526,
      "Ġawareness": 6527,
      "long": 6528,
      "rete": 6529,
      "Ġfirstname": 6530,
      "Ġmuscle": 6531,
      "ĠManager": 6532,
      "Ġcake": 6533,
      "ĠThrough": 6534,
      "Ġcandidate": 6535,
      "ĠAff": 6536,
      "ĠCert": 6537,
      "Ġcovers": 6538,
      "Ġhorse": 6539,
      "Ġassessment": 6540,
      "apes": 6541,
      "Ġbeer": 6542,
      "Ġdiss": 6543,
      "ĠArab": 6544,
      "Ġwheel": 6545,
      "Ġinfo": 6546,
      "Ġdelay": 6547,
      "97": 6548,
      "lines": 6549,
      "Ġregulations": 6550,
      "Ġaccurate": 6551,
      "Ġrenew": 6552,
      "Ġcheese": 6553,
      "Ġbasket": 6554,
      "inally": 6555,
      "icial": 6556,
      "ĠGirl": 6557,
      "Ġcoordin": 6558,
      "Ġproviders": 6559,
      "Ġrestaurants": 6560,
      "ĠCA": 6561,
      "merce": 6562,
      "Ġplanet": 6563,
      "ĠRichard": 6564,
      "ĠMountain": 6565,
      "ĠLive": 6566,
      "56": 6567,
      "Ġshift": 6568,
      "Ġsmell": 6569,
      "ĠCentre": 6570,
      "Ġnative": 6571,
      "Ġexternal": 6572,
      "Ġdish": 6573,
      "Ġspoke": 6574,
      "Ġrail": 6575,
      "Ġcapable": 6576,
      "Ġcounsel": 6577,
      "vy": 6578,
      "astern": 6579,
      "rible": 6580,
      "Ġchicken": 6581,
      "Ġauthors": 6582,
      "Ġdegrees": 6583,
      "Ġattorney": 6584,
      "Ġast": 6585,
      "Ġserves": 6586,
      "Ġacid": 6587,
      "ĠKeep": 6588,
      "Ġfigures": 6589,
      "Ġflowers": 6590,
      "born": 6591,
      "zil": 6592,
      "Ġprove": 6593,
      "Ġrecognize": 6594,
      "Ġhouses": 6595,
      "Ġbear": 6596,
      "ĠSar": 6597,
      "Ġrealized": 6598,
      "ĠControl": 6599,
      "04": 6600,
      "ĠWilliams": 6601,
      "03": 6602,
      "Tr": 6603,
      "Ġille": 6604,
      "iner": 6605,
      "lete": 6606,
      "ĠFollow": 6607,
      "class": 6608,
      "Ġrein": 6609,
      "Ġyards": 6610,
      "essed": 6611,
      "ĠLt": 6612,
      "Ġcorrespond": 6613,
      "!!!": 6614,
      "Ġdropped": 6615,
      "ĠRussia": 6616,
      "stream": 6617,
      "Ġdeals": 6618,
      "Ġjack": 6619,
      "Ġassign": 6620,
      "Ġprivacy": 6621,
      "Ð¾": 6622,
      "âĢĻ.": 6623,
      "ĠBow": 6624,
      "ĠOlymp": 6625,
      "ĠPhot": 6626,
      "Ġwalked": 6627,
      "ĠContact": 6628,
      "Ġsilver": 6629,
      "ml": 6630,
      "ĠBrand": 6631,
      "Ġinfrastructure": 6632,
      "Ġprompt": 6633,
      "REE": 6634,
      "oosing": 6635,
      "Ġsessions": 6636,
      "Ġnuclear": 6637,
      "ĠSign": 6638,
      "Ġchocolate": 6639,
      "Ġorganized": 6640,
      "Ġobjects": 6641,
      "ĠWhether": 6642,
      "Ġdim": 6643,
      "Ġloves": 6644,
      "ĠTown": 6645,
      "Ġchannel": 6646,
      "Ġefficiency": 6647,
      "iety": 6648,
      "Ġpil": 6649,
      "Ġroutine": 6650,
      "AY": 6651,
      "Ġdecade": 6652,
      "Ġsurrounding": 6653,
      "Posted": 6654,
      "Ġsurf": 6655,
      "Ġpulled": 6656,
      "Ġregistration": 6657,
      "ĠJackson": 6658,
      "Ġinstructions": 6659,
      "Man": 6660,
      "plete": 6661,
      "41": 6662,
      "Ġwarn": 6663,
      "Ġben": 6664,
      "Ġdates": 6665,
      "ican": 6666,
      "ĠOpt": 6667,
      "agues": 6668,
      "Ġrow": 6669,
      "Ġincident": 6670,
      "Ġtonight": 6671,
      "ubs": 6672,
      "Ġvisiting": 6673,
      "Ġdomain": 6674,
      "ĠDigital": 6675,
      "Dr": 6676,
      "bal": 6677,
      "ether": 6678,
      "ĠFair": 6679,
      "away": 6680,
      "Ġseriously": 6681,
      "Ġcandidates": 6682,
      "Ġhate": 6683,
      "Ġshel": 6684,
      "Once": 6685,
      "Ġcontest": 6686,
      "Ġroot": 6687,
      "cons": 6688,
      "osite": 6689,
      "Ġclosely": 6690,
      "CA": 6691,
      "ĠChief": 6692,
      "Ġarts": 6693,
      "Ġfairly": 6694,
      "Ġtomorrow": 6695,
      "icing": 6696,
      "uling": 6697,
      "eline": 6698,
      "Ġempt": 6699,
      "ĠInte": 6700,
      "lights": 6701,
      "eration": 6702,
      "ĠSaf": 6703,
      "Ġdiscussed": 6704,
      "rid": 6705,
      "earing": 6706,
      "Ġtwe": 6707,
      "Ġmountain": 6708,
      "Ġphilosoph": 6709,
      "ĠMP": 6710,
      "ĠDu": 6711,
      "Ġtalked": 6712,
      "Also": 6713,
      "CR": 6714,
      "nic": 6715,
      "inue": 6716,
      "ellect": 6717,
      "Ġdelight": 6718,
      "Ġprotest": 6719,
      "ora": 6720,
      "ĠLo": 6721,
      "claim": 6722,
      "Ġcampus": 6723,
      "date": 6724,
      "emic": 6725,
      "Ġdescription": 6726,
      "Ġconfirmed": 6727,
      "Ġsituations": 6728,
      "ĠCir": 6729,
      "Ġprofit": 6730,
      "ca": 6731,
      "Ġongoing": 6732,
      "ĠFull": 6733,
      "Ġsuc": 6734,
      "Ġoutdoor": 6735,
      "Ġvillage": 6736,
      "Ġguitar": 6737,
      "Ġdifferences": 6738,
      "Ġargument": 6739,
      "TR": 6740,
      "greg": 6741,
      "swe": 6742,
      "uster": 6743,
      "Ġliked": 6744,
      "Ġprospect": 6745,
      "Where": 6746,
      "ÃŃ": 6747,
      "ĠCreat": 6748,
      "ĠEnd": 6749,
      "Ġconducted": 6750,
      "ĠAuthor": 6751,
      "berry": 6752,
      "uality": 6753,
      "Ġrisks": 6754,
      "Ġslowly": 6755,
      "pat": 6756,
      "Ġadm": 6757,
      "Ġresolution": 6758,
      "ĠJustice": 6759,
      "Ġcollected": 6760,
      "Ġchallenging": 6761,
      "Ġoriginally": 6762,
      "Ġdepth": 6763,
      "Ġbrowser": 6764,
      "Ġlie": 6765,
      "Ġreporting": 6766,
      "aniel": 6767,
      "Ġstruggle": 6768,
      "Per": 6769,
      "ĠSports": 6770,
      "Ġ75": 6771,
      "Ġyounger": 6772,
      "96": 6773,
      "Ġtransition": 6774,
      "Ġextent": 6775,
      "Ġgraduate": 6776,
      "Ġkne": 6777,
      "nam": 6778,
      "anish": 6779,
      "oty": 6780,
      "ĠUt": 6781,
      "Ġengage": 6782,
      "Ġtag": 6783,
      "Ġsin": 6784,
      "ĠNight": 6785,
      "person": 6786,
      "ĠSet": 6787,
      "racy": 6788,
      "Ġpainting": 6789,
      "ĠGeorg": 6790,
      "Ġpremium": 6791,
      "Ġvit": 6792,
      "Ġunable": 6793,
      "ĠItalian": 6794,
      "ĠCoast": 6795,
      "Ġaffili": 6796,
      "Ġpartnership": 6797,
      "awn": 6798,
      "ĠSP": 6799,
      "ĠDC": 6800,
      "Although": 6801,
      "Ġsoci": 6802,
      "Ġbes": 6803,
      "ĠPot": 6804,
      "Ġinterior": 6805,
      "Ġenthus": 6806,
      "Ġbirthday": 6807,
      "owntown": 6808,
      "law": 6809,
      "Ġmixed": 6810,
      "Ġpatterns": 6811,
      "ĠAcademy": 6812,
      "va": 6813,
      "ĠTit": 6814,
      "ĠCode": 6815,
      "Ġshots": 6816,
      "Ġevil": 6817,
      "Ġstands": 6818,
      "Ġdelicious": 6819,
      "Ġcompens": 6820,
      "Ġcommittee": 6821,
      "Ġinches": 6822,
      "Ġauto": 6823,
      "amber": 6824,
      "Ġpursu": 6825,
      "Ġsuccessfully": 6826,
      "ĠPolit": 6827,
      "ĠLink": 6828,
      "ĠJun": 6829,
      "Ġsymbol": 6830,
      "Ed": 6831,
      "Ġagricult": 6832,
      "Ġcarbon": 6833,
      "profit": 6834,
      "Ġbreakfast": 6835,
      "ĠFrancisco": 6836,
      "Ġtiny": 6837,
      "achel": 6838,
      "Ġsomewhere": 6839,
      "Ġ38": 6840,
      "Ġretire": 6841,
      "ĠSpring": 6842,
      "Ġsustainable": 6843,
      "Ġicon": 6844,
      "Ġvend": 6845,
      "ĠCre": 6846,
      "ĠDivision": 6847,
      "Ġheight": 6848,
      "ĠEs": 6849,
      "Ġpassing": 6850,
      "abetes": 6851,
      ".||": 6852,
      "ĠEr": 6853,
      "Ġexclusive": 6854,
      "ĠSecretary": 6855,
      "Ġsucceed": 6856,
      "Ġelev": 6857,
      "Ġstone": 6858,
      "ĠChildren": 6859,
      "ĠLee": 6860,
      "Ġbonus": 6861,
      "ĠSon": 6862,
      "ĠMid": 6863,
      "uls": 6864,
      "ĠLittle": 6865,
      "pected": 6866,
      "LY": 6867,
      "ĠTem": 6868,
      "ĠEsc": 6869,
      "pay": 6870,
      "resents": 6871,
      "Ġinterface": 6872,
      "Ġsubmit": 6873,
      "ĠBefore": 6874,
      "Ġpossibility": 6875,
      "lder": 6876,
      "Ġhasn": 6877,
      "yard": 6878,
      "ĠJon": 6879,
      "66": 6880,
      "Ġnetworks": 6881,
      "ĠPass": 6882,
      "Ġcock": 6883,
      "Ġphase": 6884,
      "ĠArmy": 6885,
      "Ġvul": 6886,
      "Ġsmile": 6887,
      "ERS": 6888,
      "Ġlistening": 6889,
      "Ġbelieves": 6890,
      "Ġsurprised": 6891,
      "Ġaffordable": 6892,
      "ugh": 6893,
      "Ġsight": 6894,
      "arry": 6895,
      "Ġsuggests": 6896,
      "Mr": 6897,
      "Ġmic": 6898,
      "otal": 6899,
      "eting": 6900,
      "Ġstreets": 6901,
      "ĠBudd": 6902,
      "ta": 6903,
      "ression": 6904,
      "Ġpersons": 6905,
      "ĠColl": 6906,
      "ĠYoung": 6907,
      "Ġassets": 6908,
      "Ġnecessarily": 6909,
      "ĠCharles": 6910,
      "Col": 6911,
      "ults": 6912,
      "Ġfunny": 6913,
      "Ġathlet": 6914,
      "ĠCost": 6915,
      "ĠHand": 6916,
      "quir": 6917,
      "ĠGal": 6918,
      "ĠSoft": 6919,
      "ashed": 6920,
      "stone": 6921,
      "urning": 6922,
      "ĠRights": 6923,
      "ĠOS": 6924,
      "Ġ2021": 6925,
      "Ġinvent": 6926,
      "Even": 6927,
      "Ġcopyright": 6928,
      "Ġconsistent": 6929,
      "xy": 6930,
      "Ġisland": 6931,
      "Ġtrig": 6932,
      "elly": 6933,
      "Ġhumans": 6934,
      "Ġinjuries": 6935,
      "pic": 6936,
      "stood": 6937,
      "ĠSearch": 6938,
      "ĠAng": 6939,
      "Ġages": 6940,
      "Ġfeelings": 6941,
      "ĠKey": 6942,
      "Ġnormally": 6943,
      "78": 6944,
      "bles": 6945,
      "Ġlicens": 6946,
      "Ġhoping": 6947,
      "ĠSup": 6948,
      "Ġvital": 6949,
      "Ġletters": 6950,
      "aturally": 6951,
      "Ġdiverse": 6952,
      "Ġmanufacturing": 6953,
      "ĠWatch": 6954,
      "Ġinterpret": 6955,
      "Ġhang": 6956,
      "ĠDie": 6957,
      "Ġpayments": 6958,
      "Ġphotograp": 6959,
      "Ġimmediate": 6960,
      "Ġbodies": 6961,
      "ĠFOR": 6962,
      "ĠFestival": 6963,
      "Ġrose": 6964,
      "Ġfinds": 6965,
      "Ġorganic": 6966,
      "ĠGuide": 6967,
      "ĠHotel": 6968,
      "ĠOhio": 6969,
      "View": 6970,
      "pes": 6971,
      "Ġhall": 6972,
      "ĠGall": 6973,
      "obby": 6974,
      "Ġcrack": 6975,
      "pons": 6976,
      "ĠÐ": 6977,
      "alse": 6978,
      "Ġsauce": 6979,
      "nell": 6980,
      "Ġthorough": 6981,
      "rage": 6982,
      "Ġremained": 6983,
      "Ġobtained": 6984,
      "ĠTherefore": 6985,
      "Ġcircuit": 6986,
      "eding": 6987,
      "ĠEU": 6988,
      "Ġcontemporary": 6989,
      "Ġhat": 6990,
      "sell": 6991,
      "Ġnarr": 6992,
      "Ġtested": 6993,
      "Ġnegoti": 6994,
      "ĠCH": 6995,
      "cling": 6996,
      "Ġgrass": 6997,
      "Ġlapt": 6998,
      "Ġstretch": 6999,
      "Ġrepresents": 7000,
      "Ġtechnique": 7001,
      "Free": 7002,
      "UL": 7003,
      "she": 7004,
      "Ġbat": 7005,
      "Ġpitch": 7006,
      "ĠBible": 7007,
      "ĠItaly": 7008,
      "Ġrecording": 7009,
      "Ġbasically": 7010,
      "ĠNext": 7011,
      "Ġabsor": 7012,
      "Ġlegislation": 7013,
      "ba": 7014,
      "gas": 7015,
      "zing": 7016,
      "raid": 7017,
      "Ġprepar": 7018,
      "ampion": 7019,
      "aper": 7020,
      "Ġnarrow": 7021,
      "umes": 7022,
      "Ġattrib": 7023,
      "Ġcommunications": 7024,
      "Ġfeaturing": 7025,
      "Ġalleged": 7026,
      "Ġhits": 7027,
      "ĠCast": 7028,
      "ĠPack": 7029,
      "ĠGames": 7030,
      "umps": 7031,
      "Ġcerem": 7032,
      "Ġimprovement": 7033,
      "Ġexpressed": 7034,
      "Ġvictims": 7035,
      "Ġfro": 7036,
      "Ġacts": 7037,
      "comes": 7038,
      "Ġdealing": 7039,
      "Ġoccurred": 7040,
      "AB": 7041,
      "ĠEll": 7042,
      "ih": 7043,
      "âĢĻ,": 7044,
      "Ġexpectations": 7045,
      "Ġtasks": 7046,
      "ito": 7047,
      "Ġpapers": 7048,
      "Ġintent": 7049,
      "Ġlegs": 7050,
      "........": 7051,
      "Ġvirtual": 7052,
      "Int": 7053,
      "Ġ]": 7054,
      "lements": 7055,
      "ĠAC": 7056,
      "ĠWalk": 7057,
      "elf": 7058,
      "Ġrelief": 7059,
      "Ġ1990": 7060,
      "Ġlikes": 7061,
      "Ġtank": 7062,
      "Ġbanks": 7063,
      "Ġbare": 7064,
      "Ġgay": 7065,
      "ĠPrem": 7066,
      "Ġtrained": 7067,
      "Ġentreprene": 7068,
      "Ġauthent": 7069,
      "Ġresistance": 7070,
      "Ġborder": 7071,
      "Ġlad": 7072,
      "ailability": 7073,
      "Ġsubsequ": 7074,
      "ĠPrice": 7075,
      "RS": 7076,
      "yers": 7077,
      "hem": 7078,
      "aints": 7079,
      "asters": 7080,
      "Ġphr": 7081,
      "Ġbroadcast": 7082,
      "equ": 7083,
      "Ġreward": 7084,
      "ĠBall": 7085,
      "During": 7086,
      "Jo": 7087,
      "uction": 7088,
      "Ġglad": 7089,
      "pir": 7090,
      "ĠDVD": 7091,
      "ppers": 7092,
      "isters": 7093,
      "pel": 7094,
      "Ġreligion": 7095,
      "dated": 7096,
      "ĠSite": 7097,
      "elcome": 7098,
      "inton": 7099,
      "Ġskill": 7100,
      "Ġinspiration": 7101,
      "Ġmonitoring": 7102,
      "Â°": 7103,
      "Ġadds": 7104,
      "Ġ1999": 7105,
      "orable": 7106,
      "iser": 7107,
      "oval": 7108,
      "Ġmachines": 7109,
      "Ġwatched": 7110,
      "Ġprinciples": 7111,
      "cue": 7112,
      "ĠKn": 7113,
      "ificate": 7114,
      "ĠPlace": 7115,
      "Ġsearching": 7116,
      "Ġsufficient": 7117,
      "Ġpercentage": 7118,
      "Ġeveryday": 7119,
      "Ġ55": 7120,
      "Ġmini": 7121,
      "Ġapproval": 7122,
      "Ġfacilit": 7123,
      "Ġconvenient": 7124,
      "mond": 7125,
      "Ġfiled": 7126,
      "ospit": 7127,
      "bar": 7128,
      "inder": 7129,
      "ĠYet": 7130,
      "Ġanticip": 7131,
      "Ġdescribe": 7132,
      "itage": 7133,
      "Ġthin": 7134,
      "Ġplug": 7135,
      "Thanks": 7136,
      "Ġultimately": 7137,
      "Ġtall": 7138,
      "Ġsoph": 7139,
      "otton": 7140,
      "acc": 7141,
      "Ġblind": 7142,
      "athy": 7143,
      "Ġmoves": 7144,
      "Ġlinked": 7145,
      "Ġdefinition": 7146,
      "ĠIre": 7147,
      "ĠCook": 7148,
      "Ġadventure": 7149,
      "Ġoperate": 7150,
      "Ġreplacement": 7151,
      "PM": 7152,
      "anna": 7153,
      "ĠEnvironment": 7154,
      "Ġticket": 7155,
      "foot": 7156,
      "lyn": 7157,
      "arks": 7158,
      "Ġliquid": 7159,
      "Gu": 7160,
      "Ġupl": 7161,
      "ventional": 7162,
      "Ġimpressive": 7163,
      "Ġnob": 7164,
      "ĠRest": 7165,
      "ĠSpanish": 7166,
      "OVID": 7167,
      "bi": 7168,
      "making": 7169,
      "ĠDoes": 7170,
      "Ġinformed": 7171,
      "made": 7172,
      "Ġerr": 7173,
      "sters": 7174,
      "ortion": 7175,
      "ĠStat": 7176,
      "Ġ33": 7177,
      "Ġinstruct": 7178,
      "Ġpersonally": 7179,
      "Ġobserved": 7180,
      "Ġlifestyle": 7181,
      "Ġsuffering": 7182,
      "Ġreferred": 7183,
      "whel": 7184,
      "ĠHon": 7185,
      "ĠField": 7186,
      "Who": 7187,
      "Ġpromise": 7188,
      "Ġcategories": 7189,
      "Jan": 7190,
      "Look": 7191,
      "ĠMult": 7192,
      "Ġpharm": 7193,
      "Ġdirected": 7194,
      "Ġera": 7195,
      "inte": 7196,
      "roke": 7197,
      "teen": 7198,
      "Ġtalks": 7199,
      "Ġmurder": 7200,
      "zer": 7201,
      "aning": 7202,
      "Ġaside": 7203,
      "ĠFour": 7204,
      "ĠRight": 7205,
      "Ġexceed": 7206,
      "Ġexecut": 7207,
      "Ġamend": 7208,
      "ĠCatholic": 7209,
      "igure": 7210,
      "Ġheav": 7211,
      "Ġneither": 7212,
      "Ġsaved": 7213,
      "Ġtrick": 7214,
      "Ġflood": 7215,
      "Ġillness": 7216,
      "Ġsurprising": 7217,
      "gs": 7218,
      "ogen": 7219,
      "etime": 7220,
      "ĠHor": 7221,
      "asts": 7222,
      "Ġsomewhat": 7223,
      "SS": 7224,
      "rich": 7225,
      "essel": 7226,
      "Ġacting": 7227,
      "ĠCross": 7228,
      "Ġaccessible": 7229,
      "76": 7230,
      "bel": 7231,
      "Ġcorn": 7232,
      "arters": 7233,
      "Ġanyway": 7234,
      "85": 7235,
      "EP": 7236,
      "sue": 7237,
      "Ġpounds": 7238,
      "Ġhell": 7239,
      "ennis": 7240,
      "zona": 7241,
      "ouch": 7242,
      "Ġrear": 7243,
      "Ġsuffe": 7244,
      "EA": 7245,
      "Ġcos": 7246,
      "Ġfasc": 7247,
      "Ġdining": 7248,
      "ĠCa": 7249,
      "Ġexposure": 7250,
      "Ġguidance": 7251,
      "Ġbowl": 7252,
      "ĠPacific": 7253,
      "Pr": 7254,
      "Sm": 7255,
      "dy": 7256,
      "Ġproof": 7257,
      "Ġagents": 7258,
      "Ġtwenty": 7259,
      "ĠConnect": 7260,
      "Ġvirus": 7261,
      "oil": 7262,
      "Ġtracks": 7263,
      "Ġestimated": 7264,
      "Ġintelligence": 7265,
      "Ġsupplies": 7266,
      "ĠAndrew": 7267,
      "Ġimproving": 7268,
      "EST": 7269,
      "Ġordered": 7270,
      "Ġsizes": 7271,
      "ĠDisney": 7272,
      "ument": 7273,
      "Ġrele": 7274,
      "ĠRon": 7275,
      "ĠRay": 7276,
      "Ġmembership": 7277,
      "Ġsensitive": 7278,
      "Ġcollaboration": 7279,
      "Ġfuck": 7280,
      "ĠHollywood": 7281,
      "ĠFurther": 7282,
      "Ġmarked": 7283,
      "Ġslot": 7284,
      "ĠRoom": 7285,
      "Ġattached": 7286,
      "Ġurban": 7287,
      "American": 7288,
      "case": 7289,
      "asant": 7290,
      "utch": 7291,
      "Ġdefault": 7292,
      "Ġproposal": 7293,
      "Ġterrit": 7294,
      "ĠRoman": 7295,
      "ĠLtd": 7296,
      "celer": 7297,
      "ĠFriend": 7298,
      "Ġlargely": 7299,
      "Ġnearby": 7300,
      "Ġcontribute": 7301,
      "Check": 7302,
      "John": 7303,
      "rition": 7304,
      "inent": 7305,
      "Ġfoundation": 7306,
      "Ġresulting": 7307,
      "Ġpleasure": 7308,
      "Ġappointment": 7309,
      "Ġfinger": 7310,
      "ĠHospital": 7311,
      "neys": 7312,
      "Ġentr": 7313,
      "Ġversions": 7314,
      "ographic": 7315,
      "Ġforum": 7316,
      "Ġrating": 7317,
      "acle": 7318,
      "Ġobviously": 7319,
      "Ġreputation": 7320,
      "uine": 7321,
      "ĠHarr": 7322,
      "inding": 7323,
      "ĠKim": 7324,
      "Ġweekly": 7325,
      "Ġexplains": 7326,
      "Ġpit": 7327,
      "Ġstatements": 7328,
      "Ġintegrated": 7329,
      "Ġincreasingly": 7330,
      "obs": 7331,
      "ĠAgain": 7332,
      "ĠHard": 7333,
      "ĠKen": 7334,
      "Ġunus": 7335,
      "Ġstrange": 7336,
      "Ġforever": 7337,
      "Ġpermanent": 7338,
      "Ġafraid": 7339,
      "Ġtut": 7340,
      "ifies": 7341,
      "ĠWrit": 7342,
      "Ġtech": 7343,
      "Ġmagic": 7344,
      "ĠHelp": 7345,
      "Ġatmosphere": 7346,
      "Ġdivid": 7347,
      "entle": 7348,
      "Ġheads": 7349,
      "Ġsolar": 7350,
      "Ġknock": 7351,
      "Ġcrucial": 7352,
      "Ġwest": 7353,
      "nda": 7354,
      "isk": 7355,
      "iments": 7356,
      "ĠFar": 7357,
      "Ġreserved": 7358,
      "Ġconstant": 7359,
      "Ġrequests": 7360,
      "Ġapparently": 7361,
      "Ġtab": 7362,
      "including": 7363,
      "Ġthread": 7364,
      "ĠHim": 7365,
      "Ġchose": 7366,
      "Ġoutstanding": 7367,
      "Ġweren": 7368,
      "aze": 7369,
      "Ġ1998": 7370,
      "CD": 7371,
      "Pub": 7372,
      "Ġgolf": 7373,
      "olit": 7374,
      "this": 7375,
      "Ġflour": 7376,
      "Ġflash": 7377,
      "ĠTrust": 7378,
      "Ġscientists": 7379,
      "tail": 7380,
      "ĠTri": 7381,
      "Ġscr": 7382,
      "Ġbridge": 7383,
      "Ġprecise": 7384,
      "Ġeligible": 7385,
      "uous": 7386,
      "à¤": 7387,
      "onto": 7388,
      "ĠOl": 7389,
      "ghan": 7390,
      "ĠVan": 7391,
      "ĠExpl": 7392,
      "Ġnoise": 7393,
      "Ġmainly": 7394,
      "Ġstrike": 7395,
      "Ġdrinking": 7396,
      "Bu": 7397,
      "tocol": 7398,
      "Ġlessons": 7399,
      "Ġexception": 7400,
      "Ġconflict": 7401,
      "ĠLabor": 7402,
      "ocracy": 7403,
      "Ġpotentially": 7404,
      "ĠUsing": 7405,
      "ystem": 7406,
      "ĠPoint": 7407,
      "ogether": 7408,
      "ounded": 7409,
      "stein": 7410,
      "ĠBox": 7411,
      "Ġcuts": 7412,
      "Ġscholars": 7413,
      "front": 7414,
      "izz": 7415,
      "iana": 7416,
      "Bec": 7417,
      "des": 7418,
      "ĠInf": 7419,
      "Ġ65": 7420,
      "Ġdiam": 7421,
      "Ġspin": 7422,
      "Ġduty": 7423,
      "htt": 7424,
      "Ġlucky": 7425,
      "ĠEqu": 7426,
      "Ġentit": 7427,
      "Ġconsumption": 7428,
      "Ġmuseum": 7429,
      "enth": 7430,
      "redit": 7431,
      "aska": 7432,
      "Ġliterature": 7433,
      "ĠBon": 7434,
      "Ġbroke": 7435,
      "Ġtissue": 7436,
      "ĠSky": 7437,
      "ĠBell": 7438,
      "Ġalive": 7439,
      "ters": 7440,
      "then": 7441,
      "ĠRam": 7442,
      "Ġcelebrate": 7443,
      "Ġapartment": 7444,
      "ali": 7445,
      "Ġjun": 7446,
      "ĠThus": 7447,
      "Ġcolumn": 7448,
      "Ġfaces": 7449,
      "ĠApplic": 7450,
      "HS": 7451,
      "aylor": 7452,
      "ureau": 7453,
      "ĠExecutive": 7454,
      "ĠJac": 7455,
      "rency": 7456,
      "Ġconscious": 7457,
      "Ġregions": 7458,
      "Ġinvited": 7459,
      "Ġwaters": 7460,
      "Ġmand": 7461,
      "Ġunw": 7462,
      "Ġrecover": 7463,
      "Ġevol": 7464,
      "Ġengaged": 7465,
      "Ġgender": 7466,
      "ura": 7467,
      "amental": 7468,
      "Ġsaving": 7469,
      "Ġweapons": 7470,
      "oir": 7471,
      "cific": 7472,
      "ðŁ": 7473,
      "Ġbomb": 7474,
      "Ġpod": 7475,
      "Ġvisited": 7476,
      "Ġcapture": 7477,
      "Ġrental": 7478,
      "Ġevaluation": 7479,
      "Ġwet": 7480,
      "Ġcable": 7481,
      "oup": 7482,
      "adel": 7483,
      "ologist": 7484,
      "ĠInstagram": 7485,
      "HA": 7486,
      "Note": 7487,
      "ogs": 7488,
      "Ġtreatments": 7489,
      "ĠSystems": 7490,
      "Ġcontinuing": 7491,
      "lled": 7492,
      "urb": 7493,
      "Ġrig": 7494,
      "Ġsoil": 7495,
      "Ġbathroom": 7496,
      "Ġlandscape": 7497,
      "adium": 7498,
      "ĠHope": 7499,
      "ĠDate": 7500,
      "Ġprofessor": 7501,
      "Ġwriters": 7502,
      "ĠArea": 7503,
      "Car": 7504,
      "Ġsending": 7505,
      "ĠFed": 7506,
      "ĠRose": 7507,
      "Ġcompr": 7508,
      "Ġrelative": 7509,
      "Ġpleased": 7510,
      "Ġluck": 7511,
      "Ġ37": 7512,
      "Ġdesigner": 7513,
      "Ġperforming": 7514,
      "ĠZeal": 7515,
      "Ġmanaging": 7516,
      "ĠStudies": 7517,
      "Ġfitness": 7518,
      "2013": 7519,
      "Ġcontrols": 7520,
      "Ġvulner": 7521,
      "Ġtor": 7522,
      "inter": 7523,
      "erate": 7524,
      "Ġphen": 7525,
      "Ġdust": 7526,
      "unn": 7527,
      "Ġbrill": 7528,
      "Ġexistence": 7529,
      "Ġease": 7530,
      "Ġ150": 7531,
      "ĠLow": 7532,
      "ĠHarry": 7533,
      "ĠBrazil": 7534,
      "%.": 7535,
      "iot": 7536,
      "ints": 7537,
      "Ġlimits": 7538,
      "Ġamounts": 7539,
      "ixture": 7540,
      "page": 7541,
      "inos": 7542,
      "ĠSanta": 7543,
      "Ġstuck": 7544,
      "Ġimplementation": 7545,
      "Ġhistoric": 7546,
      "Ġclothing": 7547,
      "oned": 7548,
      "Ġpace": 7549,
      "anwhile": 7550,
      "Ġdur": 7551,
      "level": 7552,
      "ĠHa": 7553,
      "ĠDid": 7554,
      "onym": 7555,
      "Ġbottle": 7556,
      "Ġcomponent": 7557,
      "Ġempty": 7558,
      "TV": 7559,
      "ĠSn": 7560,
      "Thank": 7561,
      "Ġcreates": 7562,
      "ĠCorporation": 7563,
      "ua": 7564,
      "ĠTru": 7565,
      "Ġ)": 7566,
      "Ġpra": 7567,
      "plate": 7568,
      "weet": 7569,
      "iano": 7570,
      "Ġintellect": 7571,
      "Ġdreams": 7572,
      "ĠFred": 7573,
      "Ġsheet": 7574,
      "Ġsupplement": 7575,
      "Ġbab": 7576,
      "Ġgene": 7577,
      "ership": 7578,
      "Ġflag": 7579,
      "oken": 7580,
      "Ġhopes": 7581,
      "Pre": 7582,
      "ĠRoyal": 7583,
      "Ġplot": 7584,
      "Ġreader": 7585,
      "Ġheaded": 7586,
      "800": 7587,
      "letter": 7588,
      "Ġeggs": 7589,
      "CO": 7590,
      "Ġhidden": 7591,
      "ĠSouthern": 7592,
      "Ġoverwhel": 7593,
      "itionally": 7594,
      "ilst": 7595,
      "ĠChair": 7596,
      "Ġexperiment": 7597,
      "Ġmoral": 7598,
      "BI": 7599,
      "Ġpink": 7600,
      "Ġlies": 7601,
      "Ġdesired": 7602,
      "Ġneighb": 7603,
      "MP": 7604,
      "owers": 7605,
      "Ġclar": 7606,
      "Ġpermission": 7607,
      "Ġ1996": 7608,
      "Ġfavourite": 7609,
      "Sp": 7610,
      "àª": 7611,
      "Ġcausing": 7612,
      "Ġdrag": 7613,
      "Ġstyles": 7614,
      "tes": 7615,
      "uct": 7616,
      "isdom": 7617,
      "Ġfishing": 7618,
      "Ġnic": 7619,
      "Ġprohib": 7620,
      "ĠTech": 7621,
      "ĠDisc": 7622,
      "Ġwidely": 7623,
      "Ġthousand": 7624,
      "Ġpreferred": 7625,
      "ĠSupreme": 7626,
      "59": 7627,
      "Ġtip": 7628,
      "anned": 7629,
      "Ġfaculty": 7630,
      "cipal": 7631,
      "Ġplatforms": 7632,
      "Ġbirds": 7633,
      "ĠArizona": 7634,
      "iger": 7635,
      "Ġwithd": 7636,
      "Ġsees": 7637,
      "Ġdoctors": 7638,
      "ĠViet": 7639,
      "Ġfounded": 7640,
      "Ġvacation": 7641,
      "Ġflavor": 7642,
      "ĠGeorgia": 7643,
      "Ġindicate": 7644,
      "Ġprimarily": 7645,
      "Have": 7646,
      "Med": 7647,
      "ĠTurn": 7648,
      "ĠSher": 7649,
      ")|": 7650,
      "iform": 7651,
      "ĠFox": 7652,
      "Ġje": 7653,
      "lessly": 7654,
      "Ġtum": 7655,
      "Ġcute": 7656,
      "igen": 7657,
      "ĠRun": 7658,
      "Ġeverywhere": 7659,
      "ĠZealand": 7660,
      "Ġwins": 7661,
      "ĠRod": 7662,
      "Ġgenerate": 7663,
      "ĠSpace": 7664,
      "Book": 7665,
      "ele": 7666,
      "Ġproven": 7667,
      "ĠThough": 7668,
      "Ġsubmitted": 7669,
      "Ġexpenses": 7670,
      "Ġelected": 7671,
      "ĠCountry": 7672,
      "Ġrepeated": 7673,
      "ĠJersey": 7674,
      "Ġhole": 7675,
      "Ġdevelopers": 7676,
      "Ġcalendar": 7677,
      "yes": 7678,
      "Ġgear": 7679,
      "ĠSS": 7680,
      "ĠThree": 7681,
      "Ġthinks": 7682,
      "Ġnom": 7683,
      "tense": 7684,
      "Ġsubjects": 7685,
      "Ġprinted": 7686,
      "EG": 7687,
      "Ġfalse": 7688,
      "Ġchoosing": 7689,
      "Ġobst": 7690,
      "Ġultimate": 7691,
      "ĠCab": 7692,
      "Ġexec": 7693,
      "formance": 7694,
      "anny": 7695,
      "Ġdivision": 7696,
      "Ġinstrument": 7697,
      "Tube": 7698,
      "Ġinner": 7699,
      "Ġspaces": 7700,
      "Ġinvolves": 7701,
      "Ġopposite": 7702,
      "Ġliterally": 7703,
      "Ġsuffered": 7704,
      "sen": 7705,
      "Ġmood": 7706,
      "ĠTer": 7707,
      "Ġspokes": 7708,
      "bridge": 7709,
      "Ġbedroom": 7710,
      "Ġloans": 7711,
      "ĠAssist": 7712,
      "Two": 7713,
      "issions": 7714,
      "ĠWhich": 7715,
      "Ġgenuine": 7716,
      "ĠIreland": 7717,
      "quest": 7718,
      "ĠJr": 7719,
      "Ġcompat": 7720,
      "Ġoffices": 7721,
      "Ġ34": 7722,
      "Ġzone": 7723,
      "Ġdebut": 7724,
      "Ġflexible": 7725,
      "BD": 7726,
      "ĠLED": 7727,
      "ormal": 7728,
      "ĠKar": 7729,
      "Ġunderstood": 7730,
      "Ġlighting": 7731,
      "58": 7732,
      "Ġreaction": 7733,
      "Ġanymore": 7734,
      "olar": 7735,
      "iversary": 7736,
      "Ġdrawing": 7737,
      "run": 7738,
      "isa": 7739,
      "allas": 7740,
      "Ġarmy": 7741,
      "Ġindex": 7742,
      "Ġcouncil": 7743,
      "ĠBritain": 7744,
      "Ġsavings": 7745,
      "300": 7746,
      "Fi": 7747,
      "enger": 7748,
      "ouston": 7749,
      "ĠTax": 7750,
      "ĠDub": 7751,
      "ĠDaily": 7752,
      "ĠRyan": 7753,
      "Ġtournament": 7754,
      "makers": 7755,
      "rated": 7756,
      "oured": 7757,
      "Ġbatt": 7758,
      "roph": 7759,
      "ĠClin": 7760,
      "ĠAdam": 7761,
      "Ġdriven": 7762,
      "Ġlaid": 7763,
      "Ġmatches": 7764,
      "Ġlau": 7765,
      "ĠPak": 7766,
      "ĠRo": 7767,
      "Ġaggress": 7768,
      "Ġsmoking": 7769,
      "Rep": 7770,
      "ĠSat": 7771,
      "ĠPo": 7772,
      "Ġshad": 7773,
      "icted": 7774,
      "Ġcommonly": 7775,
      "Ġconsideration": 7776,
      "Ġstrategic": 7777,
      "Ġeast": 7778,
      "Ġstood": 7779,
      "inson": 7780,
      "jo": 7781,
      "uing": 7782,
      "sts": 7783,
      "Ġvessel": 7784,
      "Ġwhenever": 7785,
      "ava": 7786,
      "Ġcoal": 7787,
      "Ġstructures": 7788,
      "iami": 7789,
      "Ġenterprise": 7790,
      "Ġdad": 7791,
      "Ġfalling": 7792,
      "onna": 7793,
      "ĠBru": 7794,
      "ĠDark": 7795,
      "Ġroles": 7796,
      "Ġillegal": 7797,
      "worth": 7798,
      "Ġfing": 7799,
      "Ġpin": 7800,
      "ĠSometimes": 7801,
      "aine": 7802,
      "ĠJenn": 7803,
      "Ġmanual": 7804,
      "Ġwrites": 7805,
      "Ġattended": 7806,
      "Ġincredibly": 7807,
      "Ġgifts": 7808,
      "Ġmeals": 7809,
      "Ġtransp": 7810,
      "Ġmemories": 7811,
      "Ġdeeply": 7812,
      "ĠFinancial": 7813,
      "Ġaccomplish": 7814,
      "ione": 7815,
      "ĠFoot": 7816,
      "Ġpassword": 7817,
      "Ġtrends": 7818,
      "Ġinvolving": 7819,
      "ĠSmall": 7820,
      "ĠAccount": 7821,
      "Ġvoters": 7822,
      "Ġluxury": 7823,
      "cking": 7824,
      "Ġshouldn": 7825,
      "oked": 7826,
      "Ġreplaced": 7827,
      "Ġachieved": 7828,
      "Ðµ": 7829,
      "uter": 7830,
      "ĠMobile": 7831,
      "Ġque": 7832,
      "Ġexplan": 7833,
      "ĠPhys": 7834,
      "Ġqualified": 7835,
      "].": 7836,
      "rection": 7837,
      "ĠSU": 7838,
      "Ġkm": 7839,
      "ĠLeg": 7840,
      "Before": 7841,
      "Ġtransportation": 7842,
      "ĠAdministration": 7843,
      "FA": 7844,
      "Ġtact": 7845,
      "ati": 7846,
      "Ġlens": 7847,
      "Ġlatter": 7848,
      "Ġdiscipl": 7849,
      "Ġevolution": 7850,
      "was": 7851,
      "Ġawards": 7852,
      "orous": 7853,
      "ington": 7854,
      "urities": 7855,
      "Ġchances": 7856,
      "rently": 7857,
      "Ġdecent": 7858,
      "Ġfindings": 7859,
      "Ġsignal": 7860,
      "ĠConf": 7861,
      "Ġanxiety": 7862,
      "Ġformal": 7863,
      "holders": 7864,
      "Ġmanufacturer": 7865,
      "inking": 7866,
      "being": 7867,
      "ĠStudents": 7868,
      "Ġcrypt": 7869,
      "ĠMarketing": 7870,
      "pack": 7871,
      "Ġyield": 7872,
      "ocated": 7873,
      "ĠForce": 7874,
      "cover": 7875,
      "Ġlogo": 7876,
      "stra": 7877,
      "Ġreject": 7878,
      "Ġstead": 7879,
      "Ġdose": 7880,
      "Ġads": 7881,
      "Ġ400": 7882,
      "Ġstronger": 7883,
      "Ġcarrying": 7884,
      "Ġenforcement": 7885,
      "Ġclock": 7886,
      "Ġfaced": 7887,
      "Ġinjured": 7888,
      "Ġconvin": 7889,
      "52": 7890,
      "Ġma": 7891,
      "ĠNever": 7892,
      "Ġlegit": 7893,
      "Ġcookies": 7894,
      "Ġbunch": 7895,
      "idays": 7896,
      "thew": 7897,
      "Ġcapabilities": 7898,
      "bre": 7899,
      "Ġfestival": 7900,
      "stery": 7901,
      "ceived": 7902,
      "ĠKent": 7903,
      "annels": 7904,
      "ATE": 7905,
      "ĠPriv": 7906,
      "Ġscenes": 7907,
      "Ġmoist": 7908,
      "Like": 7909,
      "bury": 7910,
      "Ġmile": 7911,
      "Ġintense": 7912,
      "ĠCR": 7913,
      "ĠCond": 7914,
      "Ġstom": 7915,
      "ĠEnt": 7916,
      "iece": 7917,
      "aret": 7918,
      "Ġinteract": 7919,
      "Ġwra": 7920,
      "Ġseasons": 7921,
      "Ġproducing": 7922,
      "liament": 7923,
      "Ġprogramme": 7924,
      "ĠMA": 7925,
      "Ġcrash": 7926,
      "Ġguidelines": 7927,
      "Ġarrested": 7928,
      "Ġfifth": 7929,
      "Ġmm": 7930,
      "Ġlip": 7931,
      "Ġstake": 7932,
      "amps": 7933,
      "Ġhandling": 7934,
      "Ġlawyer": 7935,
      "Ġarrive": 7936,
      "bell": 7937,
      "ĠPract": 7938,
      "Ġcareful": 7939,
      "Ġ1997": 7940,
      "Ġcomparison": 7941,
      "days": 7942,
      "Ġusage": 7943,
      "Ġconsists": 7944,
      "Ġdefensive": 7945,
      "Ġoppon": 7946,
      "Ġfirms": 7947,
      "Ġintroduction": 7948,
      "64": 7949,
      "fits": 7950,
      "rite": 7951,
      "Ġending": 7952,
      "Ġgotten": 7953,
      "Ġbehalf": 7954,
      "Ġclaimed": 7955,
      "Ġinitiative": 7956,
      "SE": 7957,
      "ĠCO": 7958,
      "ĠFord": 7959,
      "Ġnewly": 7960,
      "Ġdrawn": 7961,
      "ĠWorks": 7962,
      "Ġeleg": 7963,
      "Ġarchitecture": 7964,
      "57": 7965,
      "BM": 7966,
      "eras": 7967,
      "icity": 7968,
      "eping": 7969,
      "ĠPersonal": 7970,
      "Ġsmoke": 7971,
      "Ġplane": 7972,
      "Ġequival": 7973,
      "Ġoccurs": 7974,
      "ĠSafety": 7975,
      "inity": 7976,
      "Ġexpansion": 7977,
      "Ġpriority": 7978,
      "Ġbars": 7979,
      "Ġassume": 7980,
      "ounter": 7981,
      "ĠQuest": 7982,
      "Because": 7983,
      "atell": 7984,
      "Ġrising": 7985,
      "Ġalt": 7986,
      "ĠKenn": 7987,
      "ĠMedicine": 7988,
      "Ġdepends": 7989,
      "ĠIII": 7990,
      "Ġ($": 7991,
      "Ġmarks": 7992,
      "Ġengagement": 7993,
      "Ġwarning": 7994,
      "Ġrecognition": 7995,
      "ĠJoseph": 7996,
      "iti": 7997,
      "ĠAwards": 7998,
      "Ġstored": 7999,
      "ĠMah": 8000,
      "ĠEp": 8001,
      "bsite": 8002,
      "Ġputs": 8003,
      "iki": 8004,
      "Ġhosting": 8005,
      "ĠDownload": 8006,
      "Ġconsequences": 8007,
      "Ġmerely": 8008,
      "boy": 8009,
      "Ġboss": 8010,
      "ruption": 8011,
      "Ġdemands": 8012,
      "Reg": 8013,
      "Ġbull": 8014,
      "alo": 8015,
      "ĠCOVID": 8016,
      "Ġraw": 8017,
      "Ġconnections": 8018,
      "Ġrecommendations": 8019,
      "Ġconcerning": 8020,
      "Ġdestination": 8021,
      "da": 8022,
      "ipt": 8023,
      "kl": 8024,
      "Ġtie": 8025,
      "Ġoutcome": 8026,
      "Ġeverybody": 8027,
      "ikes": 8028,
      "Ġpublication": 8029,
      "Ġalongside": 8030,
      "ĠNote": 8031,
      "Ġ2022": 8032,
      "Ġsolve": 8033,
      "Ġharder": 8034,
      "Ġmanagers": 8035,
      "Ġblocks": 8036,
      "SU": 8037,
      "Ġbags": 8038,
      "imize": 8039,
      "Ġundert": 8040,
      "Ġgenerated": 8041,
      "Ġsplit": 8042,
      "Ġforgot": 8043,
      "epend": 8044,
      "aters": 8045,
      "Ġhire": 8046,
      "ĠPop": 8047,
      "rieved": 8048,
      "Ġparticipation": 8049,
      "Ġunex": 8050,
      "alty": 8051,
      "Ġrecon": 8052,
      "Ġcommunicate": 8053,
      "Follow": 8054,
      "His": 8055,
      "ĠAge": 8056,
      "Ġstunning": 8057,
      "ervations": 8058,
      "bits": 8059,
      "Ġshops": 8060,
      "ĠAsh": 8061,
      "Ġphotography": 8062,
      "roller": 8063,
      "Ġfunctional": 8064,
      "lers": 8065,
      "Ġnaturally": 8066,
      "Ġhadn": 8067,
      "ĠVideo": 8068,
      "ĠBrad": 8069,
      "Ġpubl": 8070,
      "ĠDavis": 8071,
      "Ġgaming": 8072,
      "Ġwash": 8073,
      "ourse": 8074,
      "Ġbreaking": 8075,
      "anguages": 8076,
      "Ġdiseases": 8077,
      "ĠDemocratic": 8078,
      "Ġhospit": 8079,
      "abeth": 8080,
      "Ġvent": 8081,
      "ĠStore": 8082,
      "pense": 8083,
      "ĠPolicy": 8084,
      "Ġbaseball": 8085,
      "ĠBuilding": 8086,
      "burgh": 8087,
      "Ġcolleagues": 8088,
      "ĠRadio": 8089,
      "Ġsuddenly": 8090,
      "Ã³": 8091,
      "Ġmob": 8092,
      "ĠSuch": 8093,
      "Ġasks": 8094,
      "ĠStan": 8095,
      "Ġstayed": 8096,
      "ĠJewish": 8097,
      "Aug": 8098,
      "ĠHoly": 8099,
      "isted": 8100,
      "Ġcontrolled": 8101,
      "fall": 8102,
      "heast": 8103,
      "ĠSea": 8104,
      "Ġassault": 8105,
      "2012": 8106,
      "ĠBlog": 8107,
      "haust": 8108,
      "ĠBroad": 8109,
      "Ġescape": 8110,
      "owed": 8111,
      "season": 8112,
      "Ġseed": 8113,
      "Ġaccord": 8114,
      "Ġfundamental": 8115,
      "ĠTraining": 8116,
      "Ġtitles": 8117,
      "ĠHenry": 8118,
      "Ġstrict": 8119,
      "anted": 8120,
      "ĠArm": 8121,
      "Ġmistake": 8122,
      "iac": 8123,
      "Ġseats": 8124,
      "Ġcontained": 8125,
      "Ġzero": 8126,
      "Ġinfection": 8127,
      "Ġsamples": 8128,
      "requ": 8129,
      "Ġsought": 8130,
      "ĠPDF": 8131,
      "ĠFact": 8132,
      "aping": 8133,
      "Ġregardless": 8134,
      "ĠProfessor": 8135,
      "swered": 8136,
      "92": 8137,
      "Lear": 8138,
      "bration": 8139,
      "star": 8140,
      "Ġgentle": 8141,
      "ĠTreat": 8142,
      "ira": 8143,
      "cia": 8144,
      "Ġairport": 8145,
      "Ġcontrovers": 8146,
      "bro": 8147,
      "Ġbact": 8148,
      "ĠTable": 8149,
      "etary": 8150,
      "ĠCru": 8151,
      "ĠDNA": 8152,
      "ĠGreek": 8153,
      "Ġimper": 8154,
      "Ġsynt": 8155,
      "Ġpreparation": 8156,
      "Ġgod": 8157,
      "cker": 8158,
      "Ġcharm": 8159,
      "ĠDiego": 8160,
      "Ġlists": 8161,
      "ĠSH": 8162,
      "ĠAvenue": 8163,
      "ĠNick": 8164,
      "Ġextract": 8165,
      "Ġclosing": 8166,
      "Ġsuffer": 8167,
      "Ġadopted": 8168,
      "Oct": 8169,
      "ĠSus": 8170,
      "Ġisol": 8171,
      "Ġdeposit": 8172,
      "adelph": 8173,
      "ĠCN": 8174,
      "ĠMill": 8175,
      "Ġupgrade": 8176,
      "Ġquote": 8177,
      "Ġremoval": 8178,
      "Ġattempts": 8179,
      "''": 8180,
      "Ġham": 8181,
      "Ġreduction": 8182,
      "Ġdynamic": 8183,
      "wart": 8184,
      "usal": 8185,
      "Ġinstant": 8186,
      "Ġequally": 8187,
      "Ġsoldiers": 8188,
      "missions": 8189,
      "93": 8190,
      "etry": 8191
    },
    "merges": [
      [
        "Ġ",
        "t"
      ],
      [
        "Ġ",
        "a"
      ],
      [
        "i",
        "n"
      ],
      [
        "h",
        "e"
      ],
      [
        "r",
        "e"
      ],
      [
        "o",
        "n"
      ],
      [
        "Ġt",
        "he"
      ],
      [
        "e",
        "r"
      ],
      [
        "Ġ",
        "s"
      ],
      [
        "Ġ",
        "w"
      ],
      [
        "a",
        "t"
      ],
      [
        "Ġ",
        "o"
      ],
      [
        "n",
        "d"
      ],
      [
        "Ġ",
        "c"
      ],
      [
        "i",
        "t"
      ],
      [
        "o",
        "r"
      ],
      [
        "e",
        "s"
      ],
      [
        "i",
        "s"
      ],
      [
        "e",
        "n"
      ],
      [
        "o",
        "u"
      ],
      [
        "Ġ",
        "f"
      ],
      [
        "Ġ",
        "b"
      ],
      [
        "in",
        "g"
      ],
      [
        "Ġ",
        "p"
      ],
      [
        "e",
        "d"
      ],
      [
        "a",
        "n"
      ],
      [
        "a",
        "l"
      ],
      [
        "Ġt",
        "o"
      ],
      [
        "Ġ",
        "m"
      ],
      [
        "a",
        "r"
      ],
      [
        "Ġa",
        "nd"
      ],
      [
        "Ġo",
        "f"
      ],
      [
        "Ġ",
        "in"
      ],
      [
        "Ġ",
        "d"
      ],
      [
        "i",
        "c"
      ],
      [
        "Ġ",
        "h"
      ],
      [
        "l",
        "e"
      ],
      [
        "a",
        "s"
      ],
      [
        "o",
        "m"
      ],
      [
        "i",
        "on"
      ],
      [
        "Ġt",
        "h"
      ],
      [
        "l",
        "l"
      ],
      [
        "â",
        "Ģ"
      ],
      [
        "en",
        "t"
      ],
      [
        "Ġ",
        "l"
      ],
      [
        "v",
        "e"
      ],
      [
        "Ġ",
        "e"
      ],
      [
        "s",
        "t"
      ],
      [
        "Ġ",
        "re"
      ],
      [
        "Ġ",
        "n"
      ],
      [
        "r",
        "o"
      ],
      [
        "Ġ",
        "y"
      ],
      [
        "Ġ",
        "g"
      ],
      [
        "l",
        "y"
      ],
      [
        "Ġ",
        "I"
      ],
      [
        "c",
        "t"
      ],
      [
        "Ġb",
        "e"
      ],
      [
        "Ġ",
        "T"
      ],
      [
        "u",
        "t"
      ],
      [
        "o",
        "t"
      ],
      [
        "e",
        "t"
      ],
      [
        "Ġ",
        "S"
      ],
      [
        "Ġ",
        "is"
      ],
      [
        "i",
        "d"
      ],
      [
        "Ġy",
        "ou"
      ],
      [
        "Ġ",
        "on"
      ],
      [
        "a",
        "y"
      ],
      [
        "Ġf",
        "or"
      ],
      [
        "o",
        "w"
      ],
      [
        "Ġ",
        "A"
      ],
      [
        "Ġ",
        "C"
      ],
      [
        "u",
        "r"
      ],
      [
        "s",
        "e"
      ],
      [
        "i",
        "m"
      ],
      [
        "a",
        "d"
      ],
      [
        "c",
        "e"
      ],
      [
        "i",
        "g"
      ],
      [
        "a",
        "m"
      ],
      [
        "v",
        "er"
      ],
      [
        "Ġth",
        "at"
      ],
      [
        "Ġ",
        "u"
      ],
      [
        "c",
        "h"
      ],
      [
        "i",
        "l"
      ],
      [
        "it",
        "h"
      ],
      [
        "at",
        "ion"
      ],
      [
        "Ġs",
        "t"
      ],
      [
        "o",
        "l"
      ],
      [
        "i",
        "r"
      ],
      [
        "Ġw",
        "ith"
      ],
      [
        "âĢ",
        "Ļ"
      ],
      [
        "Ġ",
        "M"
      ],
      [
        "Ġ",
        "it"
      ],
      [
        "Ġ",
        "he"
      ],
      [
        "Ġw",
        "e"
      ],
      [
        "r",
        "a"
      ],
      [
        "Ġ",
        "B"
      ],
      [
        "Ġw",
        "h"
      ],
      [
        "Ġa",
        "n"
      ],
      [
        "Ġa",
        "s"
      ],
      [
        "Ġ",
        "P"
      ],
      [
        "er",
        "s"
      ],
      [
        "i",
        "ll"
      ],
      [
        "i",
        "f"
      ],
      [
        "k",
        "e"
      ],
      [
        "Ġp",
        "ro"
      ],
      [
        "t",
        "er"
      ],
      [
        "Ġh",
        "a"
      ],
      [
        "Ġa",
        "re"
      ],
      [
        "g",
        "e"
      ],
      [
        "Ġ",
        "W"
      ],
      [
        "Ġc",
        "on"
      ],
      [
        "l",
        "d"
      ],
      [
        "o",
        "o"
      ],
      [
        "he",
        "r"
      ],
      [
        "u",
        "l"
      ],
      [
        "Ġo",
        "r"
      ],
      [
        "at",
        "e"
      ],
      [
        "Ġ",
        "H"
      ],
      [
        "es",
        "s"
      ],
      [
        "Ġ",
        "D"
      ],
      [
        "p",
        "p"
      ],
      [
        "c",
        "k"
      ],
      [
        "Ġa",
        "t"
      ],
      [
        "Ġs",
        "e"
      ],
      [
        "Ġc",
        "om"
      ],
      [
        "o",
        "re"
      ],
      [
        "r",
        "i"
      ],
      [
        "m",
        "ent"
      ],
      [
        "Ġd",
        "e"
      ],
      [
        "ĠT",
        "he"
      ],
      [
        "Ġ",
        "1"
      ],
      [
        "es",
        "t"
      ],
      [
        "u",
        "s"
      ],
      [
        "Ġ",
        "F"
      ],
      [
        "Ġ",
        "R"
      ],
      [
        "ig",
        "h"
      ],
      [
        "t",
        "h"
      ],
      [
        "a",
        "b"
      ],
      [
        "Ġw",
        "as"
      ],
      [
        "Ġ",
        "("
      ],
      [
        "is",
        "t"
      ],
      [
        "Ġ",
        "2"
      ],
      [
        "r",
        "om"
      ],
      [
        "Ġn",
        "e"
      ],
      [
        "p",
        "e"
      ],
      [
        "Ġe",
        "x"
      ],
      [
        "u",
        "n"
      ],
      [
        "Ġ",
        "L"
      ],
      [
        "an",
        "t"
      ],
      [
        "re",
        "s"
      ],
      [
        "q",
        "u"
      ],
      [
        "it",
        "y"
      ],
      [
        "Ġs",
        "u"
      ],
      [
        "i",
        "ve"
      ],
      [
        "Ġ",
        "v"
      ],
      [
        "o",
        "p"
      ],
      [
        "Ġ",
        "r"
      ],
      [
        "e",
        "m"
      ],
      [
        "Ġha",
        "ve"
      ],
      [
        "or",
        "t"
      ],
      [
        "Ġ",
        "G"
      ],
      [
        "Ġ",
        "âĢ"
      ],
      [
        "Ġ",
        "N"
      ],
      [
        "a",
        "in"
      ],
      [
        "ar",
        "t"
      ],
      [
        "Ġ",
        "E"
      ],
      [
        "Ġth",
        "is"
      ],
      [
        "Ġn",
        "ot"
      ],
      [
        "n",
        "t"
      ],
      [
        "u",
        "st"
      ],
      [
        "Ġf",
        "rom"
      ],
      [
        "Ġyou",
        "r"
      ],
      [
        "u",
        "m"
      ],
      [
        "Ġs",
        "h"
      ],
      [
        "o",
        "s"
      ],
      [
        "Ġb",
        "y"
      ],
      [
        "i",
        "es"
      ],
      [
        "a",
        "nd"
      ],
      [
        "e",
        "l"
      ],
      [
        "igh",
        "t"
      ],
      [
        "Ġa",
        "l"
      ],
      [
        "Ġc",
        "h"
      ],
      [
        "Ġc",
        "an"
      ],
      [
        "al",
        "l"
      ],
      [
        "om",
        "e"
      ],
      [
        "i",
        "e"
      ],
      [
        "Ġ",
        "le"
      ],
      [
        "ar",
        "d"
      ],
      [
        "ou",
        "t"
      ],
      [
        "Ġ",
        "O"
      ],
      [
        "ou",
        "ld"
      ],
      [
        "Ġw",
        "ill"
      ],
      [
        "re",
        "d"
      ],
      [
        "u",
        "d"
      ],
      [
        "ou",
        "r"
      ],
      [
        "Ġa",
        "b"
      ],
      [
        "Ġd",
        "o"
      ],
      [
        "i",
        "v"
      ],
      [
        "g",
        "h"
      ],
      [
        "Ġw",
        "or"
      ],
      [
        "al",
        "ly"
      ],
      [
        "o",
        "st"
      ],
      [
        "t",
        "e"
      ],
      [
        "0",
        "0"
      ],
      [
        "'",
        "s"
      ],
      [
        "o",
        "d"
      ],
      [
        "Ġp",
        "l"
      ],
      [
        "Ġa",
        "ll"
      ],
      [
        "r",
        "ou"
      ],
      [
        "Ġ",
        "J"
      ],
      [
        "as",
        "t"
      ],
      [
        "c",
        "i"
      ],
      [
        "e",
        "ar"
      ],
      [
        "Ġ",
        "j"
      ],
      [
        "a",
        "k"
      ],
      [
        "id",
        "e"
      ],
      [
        "T",
        "he"
      ],
      [
        "Ġ",
        "k"
      ],
      [
        "in",
        "e"
      ],
      [
        "f",
        "e"
      ],
      [
        "a",
        "g"
      ],
      [
        "u",
        "re"
      ],
      [
        "Ġh",
        "as"
      ],
      [
        "Ġs",
        "o"
      ],
      [
        "p",
        "t"
      ],
      [
        "p",
        "er"
      ],
      [
        "Ġm",
        "e"
      ],
      [
        "Ġb",
        "ut"
      ],
      [
        "Ġw",
        "he"
      ],
      [
        "a",
        "ck"
      ],
      [
        "âĢ",
        "Ŀ"
      ],
      [
        "ic",
        "e"
      ],
      [
        "a",
        "ge"
      ],
      [
        "ct",
        "ion"
      ],
      [
        "Ġu",
        "s"
      ],
      [
        "ic",
        "h"
      ],
      [
        "t",
        "her"
      ],
      [
        "a",
        "c"
      ],
      [
        "Ġa",
        "d"
      ],
      [
        "Ġo",
        "ut"
      ],
      [
        "p",
        "l"
      ],
      [
        "Ġ",
        "U"
      ],
      [
        "Ġu",
        "p"
      ],
      [
        "a",
        "ke"
      ],
      [
        "Ġthe",
        "y"
      ],
      [
        "in",
        "d"
      ],
      [
        "oo",
        "k"
      ],
      [
        "on",
        "e"
      ],
      [
        "a",
        "re"
      ],
      [
        "o",
        "g"
      ],
      [
        "s",
        "o"
      ],
      [
        "Ġthe",
        "ir"
      ],
      [
        "r",
        "y"
      ],
      [
        "Ġm",
        "ore"
      ],
      [
        "on",
        "g"
      ],
      [
        "Ġcom",
        "p"
      ],
      [
        "ver",
        "y"
      ],
      [
        "Ġ",
        "en"
      ],
      [
        "im",
        "e"
      ],
      [
        "at",
        "ed"
      ],
      [
        "Ġm",
        "y"
      ],
      [
        "Ġh",
        "is"
      ],
      [
        "ab",
        "le"
      ],
      [
        "oo",
        "d"
      ],
      [
        "ou",
        "s"
      ],
      [
        "Ġt",
        "e"
      ],
      [
        "c",
        "c"
      ],
      [
        "am",
        "e"
      ],
      [
        "Ġon",
        "e"
      ],
      [
        "Ġc",
        "l"
      ],
      [
        "an",
        "s"
      ],
      [
        "i",
        "z"
      ],
      [
        "it",
        "e"
      ],
      [
        "i",
        "ke"
      ],
      [
        "i",
        "p"
      ],
      [
        "Ġs",
        "a"
      ],
      [
        "Ġwh",
        "o"
      ],
      [
        "or",
        "m"
      ],
      [
        "Ġab",
        "out"
      ],
      [
        "Ġ",
        "im"
      ],
      [
        "ĠT",
        "h"
      ],
      [
        "ĠI",
        "n"
      ],
      [
        "ĠâĢ",
        "ľ"
      ],
      [
        "i",
        "b"
      ],
      [
        "Ġcon",
        "t"
      ],
      [
        "Ġo",
        "ur"
      ],
      [
        "r",
        "u"
      ],
      [
        "ion",
        "s"
      ],
      [
        "Ġg",
        "o"
      ],
      [
        "Ġm",
        "an"
      ],
      [
        "Ġwh",
        "ich"
      ],
      [
        "n",
        "e"
      ],
      [
        "c",
        "l"
      ],
      [
        "an",
        "ce"
      ],
      [
        "Ġf",
        "e"
      ],
      [
        "d",
        "u"
      ],
      [
        "a",
        "ct"
      ],
      [
        "Ġ",
        "K"
      ],
      [
        "t",
        "o"
      ],
      [
        "i",
        "a"
      ],
      [
        "Ġ2",
        "0"
      ],
      [
        "as",
        "e"
      ],
      [
        "b",
        "er"
      ],
      [
        "Ġre",
        "s"
      ],
      [
        "i",
        "re"
      ],
      [
        "a",
        "il"
      ],
      [
        "re",
        "at"
      ],
      [
        "Ġwor",
        "k"
      ],
      [
        "re",
        "e"
      ],
      [
        "ig",
        "n"
      ],
      [
        "f",
        "f"
      ],
      [
        "Ġ",
        "Y"
      ],
      [
        "o",
        "c"
      ],
      [
        ".",
        "."
      ],
      [
        "ay",
        "s"
      ],
      [
        "Ġa",
        "pp"
      ],
      [
        "a",
        "ch"
      ],
      [
        "a",
        "ce"
      ],
      [
        "ation",
        "s"
      ],
      [
        "ar",
        "y"
      ],
      [
        "Ġp",
        "er"
      ],
      [
        "a",
        "p"
      ],
      [
        "Ġo",
        "ther"
      ],
      [
        "ul",
        "t"
      ],
      [
        "v",
        "en"
      ],
      [
        "ic",
        "k"
      ],
      [
        "a",
        "u"
      ],
      [
        "as",
        "s"
      ],
      [
        "e",
        "p"
      ],
      [
        "u",
        "b"
      ],
      [
        "ic",
        "al"
      ],
      [
        "ĠS",
        "t"
      ],
      [
        "Ġs",
        "ome"
      ],
      [
        "Ġt",
        "ime"
      ],
      [
        "Ġ",
        "qu"
      ],
      [
        "Ġy",
        "ear"
      ],
      [
        "Ġof",
        "f"
      ],
      [
        "Ġl",
        "ike"
      ],
      [
        "u",
        "e"
      ],
      [
        "i",
        "le"
      ],
      [
        "Ġal",
        "so"
      ],
      [
        "Ġan",
        "y"
      ],
      [
        "Ġh",
        "ad"
      ],
      [
        "Ġd",
        "is"
      ],
      [
        "ou",
        "nt"
      ],
      [
        "Ġ",
        "\""
      ],
      [
        "en",
        "ce"
      ],
      [
        "n",
        "ow"
      ],
      [
        "ar",
        "k"
      ],
      [
        "o",
        "ve"
      ],
      [
        "Ġg",
        "et"
      ],
      [
        "Ġu",
        "n"
      ],
      [
        "res",
        "s"
      ],
      [
        "or",
        "d"
      ],
      [
        "f",
        "orm"
      ],
      [
        "ĠI",
        "t"
      ],
      [
        "Ġthe",
        "m"
      ],
      [
        "Ġwe",
        "re"
      ],
      [
        "Ġbe",
        "en"
      ],
      [
        "Ġ",
        "V"
      ],
      [
        "ing",
        "s"
      ],
      [
        "Ġne",
        "w"
      ],
      [
        "Ġs",
        "p"
      ],
      [
        "Ġp",
        "art"
      ],
      [
        "er",
        "v"
      ],
      [
        "Ġa",
        "g"
      ],
      [
        "Ġ",
        "3"
      ],
      [
        "ĠC",
        "h"
      ],
      [
        "Ġthe",
        "re"
      ],
      [
        "on",
        "d"
      ],
      [
        "o",
        "se"
      ],
      [
        "Ġhe",
        "r"
      ],
      [
        "Ġp",
        "e"
      ],
      [
        "Ġo",
        "ver"
      ],
      [
        "Ġw",
        "ould"
      ],
      [
        "ve",
        "l"
      ],
      [
        "Ġwhe",
        "n"
      ],
      [
        "a",
        "v"
      ],
      [
        "ou",
        "gh"
      ],
      [
        "it",
        "ion"
      ],
      [
        "Ġ",
        "-"
      ],
      [
        "Ġwh",
        "at"
      ],
      [
        "Ġa",
        "r"
      ],
      [
        "ent",
        "s"
      ],
      [
        "Ġ",
        "if"
      ],
      [
        "i",
        "al"
      ],
      [
        "in",
        "k"
      ],
      [
        "or",
        "s"
      ],
      [
        "Ġth",
        "an"
      ],
      [
        "Ġt",
        "r"
      ],
      [
        "en",
        "s"
      ],
      [
        "Ġj",
        "ust"
      ],
      [
        "ou",
        "nd"
      ],
      [
        "Ġ20",
        "1"
      ],
      [
        "ir",
        "st"
      ],
      [
        "Ġp",
        "re"
      ],
      [
        "Ġs",
        "pe"
      ],
      [
        "Ġ",
        "ro"
      ],
      [
        "p",
        "ort"
      ],
      [
        "in",
        "t"
      ],
      [
        "is",
        "h"
      ],
      [
        "Ġbe",
        "c"
      ],
      [
        "o",
        "b"
      ],
      [
        "Ġre",
        "c"
      ],
      [
        "m",
        "er"
      ],
      [
        "Ġk",
        "now"
      ],
      [
        "il",
        "d"
      ],
      [
        "w",
        "n"
      ],
      [
        "Ġin",
        "to"
      ],
      [
        "op",
        "le"
      ],
      [
        "re",
        "n"
      ],
      [
        "or",
        "y"
      ],
      [
        "ĠW",
        "e"
      ],
      [
        "nd",
        "er"
      ],
      [
        "f",
        "ter"
      ],
      [
        "Ġsa",
        "id"
      ],
      [
        "ow",
        "n"
      ],
      [
        "o",
        "v"
      ],
      [
        "Ġne",
        "ed"
      ],
      [
        "ĠH",
        "e"
      ],
      [
        "Ġh",
        "ow"
      ],
      [
        "o",
        "y"
      ],
      [
        "rou",
        "gh"
      ],
      [
        "Ġa",
        "m"
      ],
      [
        "at",
        "er"
      ],
      [
        "ad",
        "e"
      ],
      [
        "Ġs",
        "c"
      ],
      [
        "it",
        "t"
      ],
      [
        "Ġit",
        "s"
      ],
      [
        "Ġa",
        "cc"
      ],
      [
        "an",
        "g"
      ],
      [
        "Ġt",
        "w"
      ],
      [
        "Ġc",
        "o"
      ],
      [
        "ver",
        "s"
      ],
      [
        "ol",
        "d"
      ],
      [
        "Ġpe",
        "ople"
      ],
      [
        "l",
        "ic"
      ],
      [
        "n",
        "ing"
      ],
      [
        "Ġd",
        "es"
      ],
      [
        "Ġs",
        "he"
      ],
      [
        "Ġb",
        "l"
      ],
      [
        "Ġf",
        "irst"
      ],
      [
        "Ġm",
        "ay"
      ],
      [
        "w",
        "e"
      ],
      [
        "on",
        "s"
      ],
      [
        "cl",
        "ud"
      ],
      [
        "Ġn",
        "o"
      ],
      [
        "u",
        "al"
      ],
      [
        "ĠâĢ",
        "ĵ"
      ],
      [
        "c",
        "es"
      ],
      [
        "ci",
        "al"
      ],
      [
        "he",
        "d"
      ],
      [
        "i",
        "an"
      ],
      [
        "Ġcom",
        "m"
      ],
      [
        "au",
        "se"
      ],
      [
        "at",
        "es"
      ],
      [
        "'",
        "t"
      ],
      [
        "am",
        "p"
      ],
      [
        "Ġon",
        "ly"
      ],
      [
        "Ġ1",
        "9"
      ],
      [
        "f",
        "t"
      ],
      [
        "u",
        "ll"
      ],
      [
        "l",
        "p"
      ],
      [
        "Ġ",
        "4"
      ],
      [
        "Ġm",
        "ake"
      ],
      [
        "Ġbe",
        "t"
      ],
      [
        "re",
        "nt"
      ],
      [
        "Ġm",
        "ost"
      ],
      [
        "Ġt",
        "ra"
      ],
      [
        "ment",
        "s"
      ],
      [
        "d",
        "ay"
      ],
      [
        "Ġb",
        "ack"
      ],
      [
        "e",
        "nd"
      ],
      [
        "Ġad",
        "d"
      ],
      [
        "r",
        "ic"
      ],
      [
        "ter",
        "n"
      ],
      [
        "Ġp",
        "o"
      ],
      [
        "Ġin",
        "d"
      ],
      [
        "Ġl",
        "ook"
      ],
      [
        "Ġe",
        "m"
      ],
      [
        "Ġpro",
        "v"
      ],
      [
        "ĠTh",
        "is"
      ],
      [
        "Ġe",
        "very"
      ],
      [
        "i",
        "ly"
      ],
      [
        "Ġhe",
        "lp"
      ],
      [
        "ĠR",
        "e"
      ],
      [
        "rou",
        "nd"
      ],
      [
        "Ġf",
        "l"
      ],
      [
        "Ġth",
        "rough"
      ],
      [
        "h",
        "ing"
      ],
      [
        "Ġ",
        "5"
      ],
      [
        "at",
        "ing"
      ],
      [
        "Ġw",
        "ant"
      ],
      [
        "i",
        "ous"
      ],
      [
        ")",
        "."
      ],
      [
        "Ġin",
        "clud"
      ],
      [
        "is",
        "e"
      ],
      [
        "Ġtw",
        "o"
      ],
      [
        "ie",
        "w"
      ],
      [
        "Ġse",
        "e"
      ],
      [
        "Ġcon",
        "s"
      ],
      [
        "l",
        "es"
      ],
      [
        "Ġa",
        "ct"
      ],
      [
        "g",
        "r"
      ],
      [
        "Ġthe",
        "se"
      ],
      [
        "Ġu",
        "se"
      ],
      [
        "Ġwe",
        "ll"
      ],
      [
        "Ġpro",
        "du"
      ],
      [
        "Ġu",
        "nder"
      ],
      [
        "Ġa",
        "fter"
      ],
      [
        "se",
        "l"
      ],
      [
        "k",
        "s"
      ],
      [
        "Ġb",
        "u"
      ],
      [
        "it",
        "ies"
      ],
      [
        "Ġc",
        "ould"
      ],
      [
        "p",
        "h"
      ],
      [
        "fe",
        "ct"
      ],
      [
        "is",
        "s"
      ],
      [
        "e",
        "ct"
      ],
      [
        "x",
        "t"
      ],
      [
        "Ġp",
        "h"
      ],
      [
        "c",
        "ed"
      ],
      [
        "e",
        "w"
      ],
      [
        "o",
        "ll"
      ],
      [
        "if",
        "e"
      ],
      [
        "f",
        "ore"
      ],
      [
        "Ġs",
        "erv"
      ],
      [
        "er",
        "t"
      ],
      [
        "ur",
        "n"
      ],
      [
        "T",
        "h"
      ],
      [
        "pp",
        "ort"
      ],
      [
        "Ġd",
        "if"
      ],
      [
        "if",
        "ic"
      ],
      [
        "a",
        "w"
      ],
      [
        "he",
        "n"
      ],
      [
        "ro",
        "w"
      ],
      [
        "Ġpl",
        "ay"
      ],
      [
        "Ġ",
        "very"
      ],
      [
        "Ġre",
        "l"
      ],
      [
        "Ġh",
        "im"
      ],
      [
        "u",
        "ch"
      ],
      [
        "Ġs",
        "y"
      ],
      [
        "Ġyear",
        "s"
      ],
      [
        "Ġe",
        "ven"
      ],
      [
        "t",
        "ing"
      ],
      [
        "r",
        "it"
      ],
      [
        "Ġw",
        "ay"
      ],
      [
        "Ġre",
        "g"
      ],
      [
        "Ġg",
        "ood"
      ],
      [
        "Ġin",
        "c"
      ],
      [
        "ers",
        "on"
      ],
      [
        "on",
        "t"
      ],
      [
        "Ġin",
        "v"
      ],
      [
        "le",
        "ct"
      ],
      [
        "Ġman",
        "y"
      ],
      [
        "Ġ",
        "ra"
      ],
      [
        "ation",
        "al"
      ],
      [
        "Ġp",
        "r"
      ],
      [
        "Ġre",
        "m"
      ],
      [
        "an",
        "ge"
      ],
      [
        "Ġ2",
        "00"
      ],
      [
        "Ġn",
        "ow"
      ],
      [
        "in",
        "ess"
      ],
      [
        "j",
        "ect"
      ],
      [
        "pe",
        "ct"
      ],
      [
        "f",
        "ul"
      ],
      [
        "Ġim",
        "p"
      ],
      [
        "os",
        "s"
      ],
      [
        "Ġthe",
        "n"
      ],
      [
        "Ġe",
        "v"
      ],
      [
        "c",
        "ess"
      ],
      [
        "Ġst",
        "ud"
      ],
      [
        "al",
        "s"
      ],
      [
        "Ġc",
        "ol"
      ],
      [
        "Ġ",
        "ke"
      ],
      [
        "ak",
        "ing"
      ],
      [
        "Ġs",
        "m"
      ],
      [
        "Ġwhe",
        "re"
      ],
      [
        "o",
        "ck"
      ],
      [
        "Ġd",
        "id"
      ],
      [
        "Ġr",
        "ight"
      ],
      [
        "ol",
        "og"
      ],
      [
        "c",
        "om"
      ],
      [
        "Ġsh",
        "ould"
      ],
      [
        "ot",
        "h"
      ],
      [
        "|",
        "|"
      ],
      [
        "ib",
        "le"
      ],
      [
        "ĠY",
[...]
